{
  "version": "1.0",
  "truncation": null,
  "padding": null,
  "added_tokens": [
    {
      "id": 0,
      "content": "[PAD]",
      "single_word": false,
      "lstrip": false,
      "rstrip": false,
      "normalized": false,
      "special": true
    },
    {
      "id": 1,
      "content": "[UNK]",
      "single_word": false,
      "lstrip": false,
      "rstrip": false,
      "normalized": false,
      "special": true
    },
    {
      "id": 2,
      "content": "[CLS]",
      "single_word": false,
      "lstrip": false,
      "rstrip": false,
      "normalized": false,
      "special": true
    }
  ],
  "normalizer": null,
  "pre_tokenizer": {
    "type": "ByteLevel",
    "add_prefix_space": false,
    "trim_offsets": true,
    "use_regex": true
  },
  "post_processor": null,
  "decoder": {
    "type": "ByteLevel",
    "add_prefix_space": true,
    "trim_offsets": true,
    "use_regex": true
  },
  "model": {
    "type": "BPE",
    "dropout": null,
    "unk_token": "[UNK]",
    "continuing_subword_prefix": null,
    "end_of_word_suffix": null,
    "fuse_unk": false,
    "byte_fallback": false,
    "ignore_merges": false,
    "vocab": {
      "[PAD]": 0,
      "[UNK]": 1,
      "[CLS]": 2,
      "!": 3,
      "\"": 4,
      "#": 5,
      "$": 6,
      "%": 7,
      "&": 8,
      "'": 9,
      "(": 10,
      ")": 11,
      "*": 12,
      "+": 13,
      ",": 14,
      "-": 15,
      ".": 16,
      "/": 17,
      "0": 18,
      "1": 19,
      "2": 20,
      "3": 21,
      "4": 22,
      "5": 23,
      "6": 24,
      "7": 25,
      "8": 26,
      "9": 27,
      ":": 28,
      ";": 29,
      "<": 30,
      "=": 31,
      ">": 32,
      "?": 33,
      "@": 34,
      "A": 35,
      "B": 36,
      "C": 37,
      "D": 38,
      "E": 39,
      "F": 40,
      "G": 41,
      "H": 42,
      "I": 43,
      "J": 44,
      "K": 45,
      "L": 46,
      "M": 47,
      "N": 48,
      "O": 49,
      "P": 50,
      "Q": 51,
      "R": 52,
      "S": 53,
      "T": 54,
      "U": 55,
      "V": 56,
      "W": 57,
      "X": 58,
      "Y": 59,
      "Z": 60,
      "[": 61,
      "\\": 62,
      "]": 63,
      "^": 64,
      "_": 65,
      "`": 66,
      "a": 67,
      "b": 68,
      "c": 69,
      "d": 70,
      "e": 71,
      "f": 72,
      "g": 73,
      "h": 74,
      "i": 75,
      "j": 76,
      "k": 77,
      "l": 78,
      "m": 79,
      "n": 80,
      "o": 81,
      "p": 82,
      "q": 83,
      "r": 84,
      "s": 85,
      "t": 86,
      "u": 87,
      "v": 88,
      "w": 89,
      "x": 90,
      "y": 91,
      "z": 92,
      "{": 93,
      "|": 94,
      "}": 95,
      "~": 96,
      "¡": 97,
      "¢": 98,
      "£": 99,
      "¤": 100,
      "¥": 101,
      "¦": 102,
      "§": 103,
      "¨": 104,
      "©": 105,
      "ª": 106,
      "«": 107,
      "¬": 108,
      "®": 109,
      "¯": 110,
      "°": 111,
      "±": 112,
      "²": 113,
      "³": 114,
      "´": 115,
      "µ": 116,
      "¶": 117,
      "·": 118,
      "¸": 119,
      "¹": 120,
      "º": 121,
      "»": 122,
      "¼": 123,
      "½": 124,
      "¾": 125,
      "¿": 126,
      "À": 127,
      "Á": 128,
      "Â": 129,
      "Ã": 130,
      "Ä": 131,
      "Å": 132,
      "Æ": 133,
      "Ç": 134,
      "È": 135,
      "É": 136,
      "Ê": 137,
      "Ë": 138,
      "Ì": 139,
      "Í": 140,
      "Î": 141,
      "Ï": 142,
      "Ð": 143,
      "Ñ": 144,
      "Ò": 145,
      "Ó": 146,
      "Ô": 147,
      "Õ": 148,
      "Ö": 149,
      "×": 150,
      "Ø": 151,
      "Ù": 152,
      "Ú": 153,
      "Û": 154,
      "Ü": 155,
      "Ý": 156,
      "Þ": 157,
      "ß": 158,
      "à": 159,
      "á": 160,
      "â": 161,
      "ã": 162,
      "ä": 163,
      "å": 164,
      "æ": 165,
      "ç": 166,
      "è": 167,
      "é": 168,
      "ê": 169,
      "ë": 170,
      "ì": 171,
      "í": 172,
      "î": 173,
      "ï": 174,
      "ð": 175,
      "ñ": 176,
      "ò": 177,
      "ó": 178,
      "ô": 179,
      "õ": 180,
      "ö": 181,
      "÷": 182,
      "ø": 183,
      "ù": 184,
      "ú": 185,
      "û": 186,
      "ü": 187,
      "ý": 188,
      "þ": 189,
      "ÿ": 190,
      "Ā": 191,
      "ā": 192,
      "Ă": 193,
      "ă": 194,
      "Ą": 195,
      "ą": 196,
      "Ć": 197,
      "ć": 198,
      "Ĉ": 199,
      "ĉ": 200,
      "Ċ": 201,
      "ċ": 202,
      "Č": 203,
      "č": 204,
      "Ď": 205,
      "ď": 206,
      "Đ": 207,
      "đ": 208,
      "Ē": 209,
      "ē": 210,
      "Ĕ": 211,
      "ĕ": 212,
      "Ė": 213,
      "ė": 214,
      "Ę": 215,
      "ę": 216,
      "Ě": 217,
      "ě": 218,
      "Ĝ": 219,
      "ĝ": 220,
      "Ğ": 221,
      "ğ": 222,
      "Ġ": 223,
      "ġ": 224,
      "Ģ": 225,
      "ģ": 226,
      "Ĥ": 227,
      "ĥ": 228,
      "Ħ": 229,
      "ħ": 230,
      "Ĩ": 231,
      "ĩ": 232,
      "Ī": 233,
      "ī": 234,
      "Ĭ": 235,
      "ĭ": 236,
      "Į": 237,
      "į": 238,
      "İ": 239,
      "ı": 240,
      "Ĳ": 241,
      "ĳ": 242,
      "Ĵ": 243,
      "ĵ": 244,
      "Ķ": 245,
      "ķ": 246,
      "ĸ": 247,
      "Ĺ": 248,
      "ĺ": 249,
      "Ļ": 250,
      "ļ": 251,
      "Ľ": 252,
      "ľ": 253,
      "Ŀ": 254,
      "ŀ": 255,
      "Ł": 256,
      "ł": 257,
      "Ń": 258,
      "Ġ-": 259,
      "et": 260,
      "in": 261,
      "do": 262,
      "su": 263,
      "sudo": 264,
      "sh": 265,
      "st": 266,
      "ap": 267,
      "ba": 268,
      "bin": 269,
      "get": 270,
      "Ġap": 271,
      "at": 272,
      "Ġapt": 273,
      "!/": 274,
      "#!/": 275,
      "ch": 276,
      "bash": 277,
      "en": 278,
      "set": 279,
      "Ġ\"": 280,
      "Ġ/": 281,
      "er": 282,
      "ll": 283,
      "dat": 284,
      "cho": 285,
      "il": 286,
      "Ġc": 287,
      "lo": 288,
      "Ġ|": 289,
      "re": 290,
      "echo": 291,
      "sta": 292,
      "de": 293,
      "sy": 294,
      "ur": 295,
      "up": 296,
      "em": 297,
      "le": 298,
      "10": 299,
      "an": 300,
      "us": 301,
      "stem": 302,
      "ip": 303,
      "system": 304,
      "stall": 305,
      "log": 306,
      "Ġin": 307,
      "ent": 308,
      "date": 309,
      "ct": 310,
      "ck": 311,
      "Ġp": 312,
      "Ġinstall": 313,
      "Ġ>": 314,
      "Ġ\"$": 315,
      "on": 316,
      "update": 317,
      "ar": 318,
      "or": 319,
      "Ġ'": 320,
      "cur": 321,
      "Ġf": 322,
      "ĠĠ": 323,
      "Ġupdate": 324,
      "44": 325,
      "Ġ.": 326,
      "Ġcle": 327,
      "Ġclean": 328,
      "dev": 329,
      "it": 330,
      "rent": 331,
      "current": 332,
      "ail": 333,
      "ww": 334,
      "Ġecho": 335,
      "op": 336,
      "Ġ--": 337,
      "data": 338,
      "ctl": 339,
      "Ġ2": 340,
      "systemctl": 341,
      "Ġsystemctl": 342,
      "Ġ$": 343,
      "es": 344,
      "nu": 345,
      "Ġt": 346,
      "eu": 347,
      "is": 348,
      "un": 349,
      "null": 350,
      "Ġn": 351,
      "~/": 352,
      "Ġs": 353,
      "env": 354,
      "etc": 355,
      "Ġg": 356,
      "Ġ~/": 357,
      "rep": 358,
      "ad": 359,
      "bu": 360,
      "ild": 361,
      "build": 362,
      "vi": 363,
      "mp": 364,
      "=\"": 365,
      "pr": 366,
      ">/": 367,
      "usr": 368,
      "ls": 369,
      "al": 370,
      "Ġ./": 371,
      "app": 372,
      "Ġpip": 373,
      "ec": 374,
      "ĊĠĠ": 375,
      "ĊĠĠĠ": 376,
      "ex": 377,
      "tar": 378,
      "Ġh": 379,
      "Ġre": 380,
      "js": 381,
      "fail": 382,
      "om": 383,
      "Ġ>&": 384,
      "www": 385,
      "cker": 386,
      "efail": 387,
      "euo": 388,
      "Ġpipefail": 389,
      "repo": 390,
      "ce": 391,
      "=\"$": 392,
      "tmp": 393,
      "oun": 394,
      "Ġis": 395,
      "di": 396,
      "Ġ||": 397,
      "Ġgit": 398,
      "Ġst": 399,
      "ound": 400,
      "Ġ<": 401,
      "*.": 402,
      "ork": 403,
      "work": 404,
      "Ġbash": 405,
      "wn": 406,
      "star": 407,
      "start": 408,
      "Ġ&": 409,
      "url": 410,
      "user": 411,
      "ti": 412,
      "gin": 413,
      "am": 414,
      "pip": 415,
      "ab": 416,
      "pro": 417,
      "ginx": 418,
      "ser": 419,
      ">&": 420,
      "Ġ&&": 421,
      "back": 422,
      "ile": 423,
      "ra": 424,
      "var": 425,
      "ot": 426,
      "Ġr": 427,
      "com": 428,
      "able": 429,
      "int": 430,
      "fi": 431,
      "}\"": 432,
      "=\"${": 433,
      "cat": 434,
      "ve": 435,
      "4444": 436,
      "th": 437,
      "file": 438,
      "Ġrm": 439,
      "so": 440,
      "Ġcho": 441,
      "Ġchown": 442,
      "rf": 443,
      "systemd": 444,
      "vice": 445,
      "Ġstop": 446,
      "Ġcp": 447,
      "Ġstart": 448,
      "ver": 449,
      "ME": 450,
      "zip": 451,
      "sr": 452,
      "ge": 453,
      "load": 454,
      "dis": 455,
      "Ġa": 456,
      "dir": 457,
      "ron": 458,
      "jq": 459,
      "age": 460,
      "to": 461,
      "cl": 462,
      "yth": 463,
      "Ġun": 464,
      "ed": 465,
      "ort": 466,
      "No": 467,
      "ython": 468,
      "ty": 469,
      "venv": 470,
      "Ġdo": 471,
      "exec": 472,
      "Ġ0": 473,
      "Ġfound": 474,
      "pe": 475,
      "if": 476,
      "ude": 477,
      "clude": 478,
      "'*.": 479,
      "='*.": 480,
      "ost": 481,
      "include": 482,
      "ql": 483,
      "ban": 484,
      "Ġht": 485,
      ":/": 486,
      "cp": 487,
      "type": 488,
      "fin": 489,
      "find": 490,
      "res": 491,
      "Ġredis": 492,
      "Ġ]": 493,
      ");": 494,
      "gres": 495,
      "mu": 496,
      "ostgres": 497,
      "ostgresql": 498,
      "HO": 499,
      "HOME": 500,
      "Ġfail": 501,
      "}'": 502,
      "Ġdocker": 503,
      "Ġen": 504,
      "Ġcurl": 505,
      "my": 506,
      "Ġjq": 507,
      "myapp": 508,
      "ta": 509,
      "ive": 510,
      "target": 511,
      "chive": 512,
      "archive": 513,
      "Ġpostgresql": 514,
      "proc": 515,
      "door": 516,
      "Ġth": 517,
      "(\"": 518,
      "bot": 519,
      "Ġnginx": 520,
      "Ġthen": 521,
      "ach": 522,
      "gz": 523,
      "md": 524,
      "Ġ'{": 525,
      "lse": 526,
      "Ġhe": 527,
      "02": 528,
      "else": 529,
      "Ġ*": 530,
      "sha": 531,
      "sys": 532,
      "backdoor": 533,
      "ess": 534,
      "Ġhead": 535,
      "ame": 536,
      "uf": 537,
      "usage": 538,
      ":?": 539,
      ">}\"": 540,
      "$(": 541,
      "open": 542,
      "Ġnet": 543,
      "se": 544,
      "ert": 545,
      "Ġcert": 546,
      "Ġcertbot": 547,
      "Ex": 548,
      "ols": 549,
      "atta": 550,
      "ervice": 551,
      "achable": 552,
      "attacker": 553,
      "tim": 554,
      "tools": 555,
      ")\"": 556,
      "64": 557,
      "ode": 558,
      "/.": 559,
      "git": 560,
      "Ġ1": 561,
      "dow": 562,
      "shadow": 563,
      "Ġpython": 564,
      "sock": 565,
      "://": 566,
      "tcp": 567,
      "server": 568,
      "cal": 569,
      "Ġuf": 570,
      "local": 571,
      "Ġufw": 572,
      "opt": 573,
      "Ġunzip": 574,
      "./": 575,
      "py": 576,
      "Ġvi": 577,
      "Ġbuild": 578,
      "Ġvim": 579,
      "io": 580,
      "ial": 581,
      "ential": 582,
      "Ġnode": 583,
      "essential": 584,
      "Ġnodejs": 585,
      "Ġtmu": 586,
      "Ġhtop": 587,
      "Ġtmux": 588,
      "print": 589,
      "Ġ~/.": 590,
      "/*": 591,
      "mk": 592,
      "Ġ\\": 593,
      "time": 594,
      "li": 595,
      "ss": 596,
      "tra": 597,
      "srv": 598,
      "ect": 599,
      "Ġsort": 600,
      "31": 601,
      "du": 602,
      "nginx": 603,
      "mkdir": 604,
      "rh": 605,
      "56": 606,
      "net": 607,
      "name": 608,
      "cmd": 609,
      "ing": 610,
      "tract": 611,
      "Ġw": 612,
      "backup": 613,
      "si": 614,
      "con": 615,
      "ht": 616,
      "Ġ>>": 617,
      "34": 618,
      "=$(": 619,
      "Ġlog": 620,
      "lib": 621,
      "\",": 622,
      "grep": 623,
      "Ġ+": 624,
      "Ġat": 625,
      "backups": 626,
      "-./": 627,
      ":-./": 628,
      "ject": 629,
      "dist": 630,
      "256": 631,
      "EO": 632,
      "Found": 633,
      "tp": 634,
      "ssl": 635,
      "EOF": 636,
      "Ġ{": 637,
      "project": 638,
      "src": 639,
      "projects": 640,
      "uptime": 641,
      "ml": 642,
      "rn": 643,
      "wk": 644,
      "iles": 645,
      "yam": 646,
      "Ġ'*.": 647,
      "Ġfiles": 648,
      "Ġtail": 649,
      "Ġls": 650,
      "Ġawk": 651,
      "Ġwc": 652,
      "yaml": 653,
      "Lint": 654,
      "au": 655,
      "sues": 656,
      "Ġissues": 657,
      "ret": 658,
      "html": 659,
      "Service": 660,
      "Ġex": 661,
      "openssl": 662,
      "302": 663,
      "service": 664,
      "=/": 665,
      "MC": 666,
      "xMC": 667,
      "Ġopenssl": 668,
      "ecret": 669,
      "31302": 670,
      "aes": 671,
      "bc": 672,
      "cbc": 673,
      "Ġ[": 674,
      "Ġsecret": 675,
      "workdir": 676,
      "Ġenc": 677,
      "cr": 678,
      "Ġgzip": 679,
      "json": 680,
      "crip": 681,
      "ze": 682,
      "he": 683,
      "Ġ\"$(": 684,
      "Ġ\\;": 685,
      "size": 686,
      "Ġ{}": 687,
      "lh": 688,
      "base": 689,
      "Un": 690,
      "Unit": 691,
      "tion": 692,
      "ub": 693,
      "Star": 694,
      "ecStar": 695,
      "fig": 696,
      "Ġ];": 697,
      "ExecStar": 698,
      "config": 699,
      "ExecStart": 700,
      "XX": 701,
      "Des": 702,
      "gra": 703,
      "Ġenable": 704,
      "cription": 705,
      "Description": 706,
      "ethe": 707,
      "omethe": 708,
      "ometheus": 709,
      "ory": 710,
      "atus": 711,
      "Ġ>/": 712,
      "By": 713,
      "In": 714,
      "Wan": 715,
      "ne": 716,
      "ted": 717,
      "Ġnot": 718,
      "Install": 719,
      "Wanted": 720,
      "WantedBy": 721,
      "00": 722,
      "En": 723,
      "ate": 724,
      "DO": 725,
      "Ġcron": 726,
      "iv": 727,
      "Ġread": 728,
      "ment": 729,
      "reachable": 730,
      "Ġping": 731,
      "Ġreachable": 732,
      "Ġunreachable": 733,
      "amp": 734,
      "ample": 735,
      "\");": 736,
      "26": 737,
      "la": 738,
      "ran": 739,
      "Ġhttp": 740,
      "3434": 741,
      "cron": 742,
      "qu": 743,
      "sour": 744,
      "ronment": 745,
      ".\"": 746,
      "act": 747,
      "dit": 748,
      "python": 749,
      "Ġ3": 750,
      "Ġvenv": 751,
      "upgra": 752,
      "vironment": 753,
      "audit": 754,
      "Environment": 755,
      "ivate": 756,
      "Ġready": 757,
      "source": 758,
      "activate": 759,
      "upgrade": 760,
      "03": 761,
      "da": 762,
      "Ġuser": 763,
      "short": 764,
      "Ġstatus": 765,
      "bran": 766,
      "sit": 767,
      "Ġrepo": 768,
      "branch": 769,
      "sitory": 770,
      "Ġrepository": 771,
      "ODO": 772,
      "TODO": 773,
      "fan": 774,
      "Ġ$(": 775,
      "fana": 776,
      "wa": 777,
      "Ġbase": 778,
      "Ġpr": 779,
      "curl": 780,
      "Ġe": 781,
      "socket": 782,
      "Ġx": 783,
      "Ġprometheus": 784,
      "eck": 785,
      "xd": 786,
      "check": 787,
      "Ġxxd": 788,
      "ee": 789,
      "ow": 790,
      "ter": 791,
      "Ġ5": 792,
      "upload": 793,
      "xz": 794,
      "ys": 795,
      "dep": 796,
      "Ġtr": 797,
      "network": 798,
      "')\"": 799,
      "vc": 800,
      "yq": 801,
      "Ġyq": 802,
      "Ġtee": 803,
      "Ġ<&": 804,
      "AC": 805,
      "alwa": 806,
      "always": 807,
      "go": 808,
      "Ġ10": 809,
      "Ġinto": 810,
      "Ġ'[": 811,
      "Extract": 812,
      "Ġextract": 813,
      "xzf": 814,
      "Extracted": 815,
      "eb": 816,
      "ire": 817,
      "lti": 818,
      "Ġssh": 819,
      "Ġ<<": 820,
      "multi": 821,
      "+%": 822,
      "Re": 823,
      "web": 824,
      "Ġ'+%": 825,
      "\\\"": 826,
      "Ġmyapp": 827,
      "')": 828,
      "80": 829,
      "IX": 830,
      "cket": 831,
      "now": 832,
      "enc": 833,
      "Ġci": 834,
      "reload": 835,
      "Ġsed": 836,
      "Ġsvc": 837,
      "Ġgra": 838,
      "wnload": 839,
      "Ġ<<'": 840,
      "Restart": 841,
      "Ġgrafana": 842,
      "wnloads": 843,
      "Af": 844,
      "FIX": 845,
      "tail": 846,
      "Ġ%": 847,
      "Ġda": 848,
      "Ġdep": 849,
      "loy": 850,
      "emon": 851,
      "Ġservice": 852,
      "serve": 853,
      "verage": 854,
      "Ġaverage": 855,
      "/.*": 856,
      "://')\"": 857,
      "After": 858,
      "FIXME": 859,
      "Ġdaemon": 860,
      "Ġdeploy": 861,
      "hub": 862,
      "auditd": 863,
      "AL": 864,
      "worker": 865,
      "So": 866,
      "Ġ4": 867,
      "Ġapp": 868,
      "Socket": 869,
      "ALL": 870,
      "Ġworker": 871,
      "example": 872,
      "quire": 873,
      "ACK": 874,
      "require": 875,
      "=\"~/": 876,
      "Ġappuser": 877,
      "203": 878,
      "ssh": 879,
      "202": 880,
      "HACK": 881,
      "sen": 882,
      "(\"/": 883,
      "\";": 884,
      "pdate": 885,
      "LC": 886,
      "zcat": 887,
      "dom": 888,
      "XXX": 889,
      "73": 890,
      "lf": 891,
      "vm": 892,
      "Ġget": 893,
      "Ġ'.": 894,
      "rc": 895,
      "Ġyaml": 896,
      "!@": 897,
      "#%": 898,
      "Za": 899,
      "dc": 900,
      "uran": 901,
      "Ġ</": 902,
      "self": 903,
      "!@#%": 904,
      "urandom": 905,
      "!@#%'": 906,
      "SL": 907,
      "Ġ6": 908,
      "Ġ8": 909,
      "Ġgrep": 910,
      "github": 911,
      ")'": 912,
      "od": 913,
      "basen": 914,
      "basename": 915,
      "/$(": 916,
      "fs": 917,
      "bashrc": 918,
      "Ġ.}'": 919,
      "hp": 920,
      "nc": 921,
      "Ġ'*": 922,
      ")\"'": 923,
      "\")\"": 924,
      "ell": 925,
      "php": 926,
      "ut": 927,
      "ĠTODO": 928,
      "22": 929,
      "63": 930,
      "ave": 931,
      "est": 932,
      "rub": 933,
      "Ġpy": 934,
      "\");'": 935,
      "\"'": 936,
      "fsock": 937,
      "dest": 938,
      "Ġto": 939,
      "new": 940,
      "fsockopen": 941,
      "57": 942,
      "IN": 943,
      "shell": 944,
      "verif": 945,
      "736": 946,
      "ruby": 947,
      "verify": 948,
      "ND": 949,
      "ke": 950,
      "pa": 951,
      "sync": 952,
      "Ġtcp": 953,
      "69": 954,
      "CP": 955,
      "TCP": 956,
      "downloads": 957,
      "sum": 958,
      "fsSL": 959,
      "500": 960,
      "657": 961,
      "Save": 962,
      "ast": 963,
      "ker": 964,
      "Ġ4444": 965,
      "etch": 966,
      "Ġ'$": 967,
      "Ġfetch": 968,
      "Ġexample": 969,
      "Saved": 970,
      "200": 971,
      "74": 972,
      ":'": 973,
      "lint": 974,
      "ue": 975,
      "Ġexec": 976,
      "ĠFIXME": 977,
      "Ġverify": 978,
      "eslint": 979,
      "Ġsprint": 980,
      "Ġ>&%": 981,
      ">&%": 982,
      "socat": 983,
      "nel": 984,
      "Ġ<&%": 985,
      "kernel": 986,
      "Ġsprintf": 987,
      "Do": 988,
      "Sy": 989,
      "sal": 990,
      "Ġsudo": 991,
      "ali": 992,
      "TCPSocket": 993,
      "Downloads": 994,
      "System": 995,
      "salt": 996,
      "ID": 997,
      "ST": 998,
      "Update": 999,
      "lt": 1000,
      "Ġsys": 1001,
      "ath": 1002,
      "34343434": 1003,
      "7368": 1004,
      "NDQ": 1005,
      "api": 1006,
      "Ġfast": 1007,
      "637": 1008,
      "SystemUpdate": 1009,
      "7368202": 1010,
      "Ġfastapi": 1011,
      "62": 1012,
      "CA": 1013,
      "fau": 1014,
      "fla": 1015,
      "ĠHACK": 1016,
      "69203": 1017,
      "fault": 1018,
      "flake": 1019,
      ",\"": 1020,
      "17368202": 1021,
      "GV": 1022,
      "mod": 1023,
      "tab": 1024,
      "table": 1025,
      "za": 1026,
      "ĠXXX": 1027,
      "Ġ20": 1028,
      ");$": 1029,
      "64657": 1030,
      "2631": 1031,
      "26202": 1032,
      "2617368202": 1033,
      "20303": 1034,
      "74637": 1035,
      "3434343420303": 1036,
      "tables": 1037,
      "6465762": 1038,
      "7463702": 1039,
      "Ġnu": 1040,
      "stat": 1041,
      "redis": 1042,
      "default": 1043,
      "100": 1044,
      "iptables": 1045,
      "mpy": 1046,
      "Ġ16": 1047,
      "Ġnumpy": 1048,
      "\":": 1049,
      "Av": 1050,
      "Fza": 1051,
      "Ji": 1052,
      "Jj": 1053,
      "Rj": 1054,
      "SA": 1055,
      "UT": 1056,
      "Ym": 1057,
      "ZGV": 1058,
      "bla": 1059,
      "cC": 1060,
      "sk": 1061,
      "Ġ7": 1062,
      "Ġcheck": 1063,
      "ĠYm": 1064,
      "inf": 1065,
      "supdate": 1066,
      "sysupdate": 1067,
      "=\"./": 1068,
      "prometheus": 1069,
      "taSA": 1070,
      "Ġ62617368202": 1071,
      "IDA": 1072,
      "CAtaSA": 1073,
      ",\">&": 1074,
      "AvZGV": 1075,
      "FzaCAtaSA": 1076,
      "JiAvZGV": 1077,
      "JjE": 1078,
      "RjcC": 1079,
      "black": 1080,
      "ĠYmFzaCAtaSA": 1081,
      "($": 1082,
      "50": 1083,
      "lin": 1084,
      "ma": 1085,
      "ruf": 1086,
      "Ġch": 1087,
      "Ġzcat": 1088,
      "logfile": 1089,
      "Ġnc": 1090,
      "=\"/": 1091,
      "timer": 1092,
      "pass": 1093,
      "ruff": 1094,
      "\"/": 1095,
      "::": 1096,
      "hex": 1097,
      "ist": 1098,
      "per": 1099,
      "Ġbot": 1100,
      "Ġiptables": 1101,
      "org": 1102,
      "Ġscp": 1103,
      "ache": 1104,
      "Ġcrontab": 1105,
      "Ġboto": 1106,
      "()": 1107,
      "hile": 1108,
      "nect": 1109,
      "postgresql": 1110,
      "docker": 1111,
      "chem": 1112,
      "ream": 1113,
      "Ġsql": 1114,
      "alchem": 1115,
      "Ġrequ": 1116,
      "Ġ'{\"": 1117,
      "Ġtrue": 1118,
      "ests": 1119,
      "Ġchmod": 1120,
      "Ġsqlalchem": 1121,
      "Ġrequests": 1122,
      "Ġsqlalchemy": 1123,
      "\")": 1124,
      "\"}'": 1125,
      "12": 1126,
      "28": 1127,
      "Ba": 1128,
      "Con": 1129,
      "all": 1130,
      "cache": 1131,
      "ev": 1132,
      "ion": 1133,
      "test": 1134,
      "Ġd": 1135,
      "Ġfla": 1136,
      "ount": 1137,
      "Ġpyyaml": 1138,
      "Ġpytest": 1139,
      "\":\"/": 1140,
      "29": 1141,
      "as": 1142,
      "ep": 1143,
      "Ġm": 1144,
      "leep": 1145,
      "Ġ18": 1146,
      "infra": 1147,
      "CI": 1148,
      "id": 1149,
      "im": 1150,
      "oot": 1151,
      "out": 1152,
      "rsync": 1153,
      "Ġon": 1154,
      "alth": 1155,
      "(\"$": 1156,
      "(\"%": 1157,
      "Ġ11": 1158,
      "grafana": 1159,
      "shellcheck": 1160,
      "alias": 1161,
      "Ġflask": 1162,
      ":\\\"": 1163,
      "EP": 1164,
      "PUT": 1165,
      "SO": 1166,
      "St": 1167,
      "ac": 1168,
      "mem": 1169,
      "Ġ9": 1170,
      "end": 1171,
      "low": 1172,
      "Ġ24": 1173,
      "Ġrsync": 1174,
      "Ġ'{\\\"": 1175,
      "Ġ17": 1176,
      "\\\"}'": 1177,
      "\\\":\\\"": 1178,
      "sshd": 1179,
      "STD": 1180,
      "line": 1181,
      "\\\":\\\"/": 1182,
      "Path": 1183,
      "count": 1184,
      "ftp": 1185,
      "ly": 1186,
      "path": 1187,
      "rit": 1188,
      "ĠIN": 1189,
      "status": 1190,
      "anda": 1191,
      "Ġpanda": 1192,
      "Ġgithub": 1193,
      "Ġ&'": 1194,
      "Ġdone": 1195,
      "Ġ15": 1196,
      "connect": 1197,
      "Back": 1198,
      "ĠINPUT": 1199,
      "Ġpandas": 1200,
      "){": 1201,
      "300": 1202,
      "CEP": 1203,
      "SSL": 1204,
      "by": 1205,
      "dp": 1206,
      "dr": 1207,
      "fil": 1208,
      "for": 1209,
      "jan": 1210,
      "map": 1211,
      "nt": 1212,
      "while": 1213,
      "Ġ}'": 1214,
      "ĠAC": 1215,
      "use": 1216,
      "Ġport": 1217,
      "Ġftp": 1218,
      "=\"$(": 1219,
      "pipe": 1220,
      "Ġ19": 1221,
      "\",$": 1222,
      "Ġexit": 1223,
      "Ġ32": 1224,
      "oding": 1225,
      ",\">&\",$": 1226,
      "Cont": 1227,
      "Ġdjan": 1228,
      "lower": 1229,
      "CEPT": 1230,
      "ĠACCEPT": 1231,
      "Ġdjango": 1232,
      "-%": 1233,
      "656": 1234,
      "ET": 1235,
      "List": 1236,
      "pt": 1237,
      "pty": 1238,
      "scrip": 1239,
      "ts": 1240,
      "vali": 1241,
      "wd": 1242,
      "Ġ=": 1243,
      "versi": 1244,
      "process": 1245,
      "Ġ14": 1246,
      "http": 1247,
      "345": 1248,
      "8080": 1249,
      "Stream": 1250,
      "Content": 1251,
      "version": 1252,
      "\"]": 1253,
      "53": 1254,
      "Ac": 1255,
      "Tim": 1256,
      "[\"": 1257,
      "host": 1258,
      "ies": 1259,
      "mnt": 1260,
      "put": 1261,
      "scp": 1262,
      "yes": 1263,
      "Ġ44": 1264,
      "Ġattacker": 1265,
      "Ġsysupdate": 1266,
      "enStream": 1267,
      "Ġ\"./": 1268,
      "Ġclo": 1269,
      "Ġ'/": 1270,
      "cept": 1271,
      "list": 1272,
      "track": 1273,
      "sockets": 1274,
      "636": 1275,
      "passwd": 1276,
      "Backdoor": 1277,
      "filter": 1278,
      "ListenStream": 1279,
      "scripts": 1280,
      "Accept": 1281,
      "@.": 1282,
      "Boot": 1283,
      "ER": 1284,
      "On": 1285,
      "PS": 1286,
      "Sec": 1287,
      "cess": 1288,
      "coding": 1289,
      "ff": 1290,
      "mo": 1291,
      "sp": 1292,
      "sleep": 1293,
      "wap": 1294,
      "Ġ!": 1295,
      "Ġ\"~/": 1296,
      "stamp": 1297,
      "this": 1298,
      "conf": 1299,
      "Encoding": 1300,
      "depend": 1301,
      "encies": 1302,
      "12345": 1303,
      "eval": 1304,
      "293": 1305,
      "access": 1306,
      "validate": 1307,
      "Timer": 1308,
      "BootSec": 1309,
      "ERR": 1310,
      "OnBootSec": 1311,
      "dependencies": 1312,
      "90": 1313,
      "=>": 1314,
      "Ck": 1315,
      "Dire": 1316,
      "KCI": 1317,
      "Pi": 1318,
      "ZX": 1319,
      "ak": 1320,
      "call": 1321,
      "db": 1322,
      "gr": 1323,
      "mon": 1324,
      "ng": 1325,
      "nal": 1326,
      "pam": 1327,
      "page": 1328,
      "tr": 1329,
      "ull": 1330,
      "writ": 1331,
      "yle": 1332,
      "ype": 1333,
      "Ġbackdoor": 1334,
      "sudoer": 1335,
      "style": 1336,
      "Ġ\"/": 1337,
      "long": 1338,
      "ctory": 1339,
      "Ġpull": 1340,
      "only": 1341,
      "iso": 1342,
      "cli": 1343,
      "Ġ13": 1344,
      "auth": 1345,
      "lah": 1346,
      "send": 1347,
      "INET": 1348,
      "max": 1349,
      "perl": 1350,
      "event": 1351,
      "byt": 1352,
      "maps": 1353,
      "\"];": 1354,
      "Ġclone": 1355,
      "Directory": 1356,
      "PiY": 1357,
      "sudoers": 1358,
      "(`": 1359,
      ")[\"": 1360,
      "..": 1361,
      "32": 1362,
      "77": 1363,
      "=@": 1364,
      ">>/": 1365,
      "IO": 1366,
      "JSO": 1367,
      "Type": 1368,
      "Vm": 1369,
      "ag": 1370,
      "co": 1371,
      "der": 1372,
      "lu": 1373,
      "par": 1374,
      "rs": 1375,
      "sess": 1376,
      "swap": 1377,
      "vY": 1378,
      "Ġ)": 1379,
      "Ġ@": 1380,
      "ĠN": 1381,
      "ĠVm": 1382,
      "stream": 1383,
      "enan": 1384,
      "stack": 1385,
      "Ġsleep": 1386,
      "addr": 1387,
      "proto": 1388,
      "Ġrun": 1389,
      "intenan": 1390,
      "ged": 1391,
      "timeout": 1392,
      "DOUT": 1393,
      "732": 1394,
      "STDOUT": 1395,
      "maintenan": 1396,
      "\").": 1397,
      "STDIN": 1398,
      "STDERR": 1399,
      "client": 1400,
      "JSON": 1401,
      "session": 1402,
      "maintenance": 1403,
      "));": 1404,
      "-$": 1405,
      "432": 1406,
      "61": 1407,
      "79": 1408,
      ";}": 1409,
      "=`": 1410,
      "AA": 1411,
      "AM": 1412,
      "CK": 1413,
      "OP": 1414,
      "Pe": 1415,
      "`;": 1416,
      "`)[\"": 1417,
      "bre": 1418,
      "ding": 1419,
      "esh": 1420,
      "lZ": 1421,
      "late": 1422,
      "ns": 1423,
      "udp": 1424,
      "ĠP": 1425,
      "Ġalways": 1426,
      "Ġline": 1427,
      "stent": 1428,
      "Ġ/:/": 1429,
      "ref": 1430,
      "restart": 1431,
      "onding": 1432,
      "ary": 1433,
      "Ġ'#!/": 1434,
      "Ġsave": 1435,
      "priv": 1436,
      "Ġhost": 1437,
      "Ġresp": 1438,
      "ileged": 1439,
      "Ġhealth": 1440,
      "syscall": 1441,
      "Ġnetfilter": 1442,
      "Exist": 1443,
      "Ġwhile": 1444,
      "sistent": 1445,
      "health": 1446,
      "fsS": 1447,
      "persistent": 1448,
      "127": 1449,
      "memory": 1450,
      "PathExist": 1451,
      "){$": 1452,
      "dport": 1453,
      "PiYlZ": 1454,
      "agent": 1455,
      "parse": 1456,
      "rsa": 1457,
      "break": 1458,
      "eshot": 1459,
      "latest": 1460,
      "privileged": 1461,
      "Ġresponding": 1462,
      "Ġhealthy": 1463,
      "PathExists": 1464,
      "'\"": 1465,
      "->": 1466,
      "70": 1467,
      "AS": 1468,
      "Dat": 1469,
      "Is": 1470,
      "NCk": 1471,
      "OR": 1472,
      "Pre": 1473,
      "Yy": 1474,
      "cz": 1475,
      "code": 1476,
      "fo": 1477,
      "gp": 1478,
      "hl": 1479,
      "ig": 1480,
      "iz": 1481,
      "jo": 1482,
      "mit": 1483,
      "oup": 1484,
      "ocat": 1485,
      "over": 1486,
      "sbin": 1487,
      "sch": 1488,
      "sec": 1489,
      "um": 1490,
      "Ġwww": 1491,
      "Ġlin": 1492,
      "Ġlist": 1493,
      "inet": 1494,
      "atch": 1495,
      "Ġcon": 1496,
      "lock": 1497,
      "decode": 1498,
      "urnal": 1499,
      "Ġpam": 1500,
      "curit": 1501,
      "Ġfile": 1502,
      "aily": 1503,
      "Ġno": 1504,
      "ext": 1505,
      "abled": 1506,
      "securit": 1507,
      "Ġ12": 1508,
      "Ġ\\\"": 1509,
      "dule": 1510,
      "sig": 1511,
      "\",\"": 1512,
      "xMCIs": 1513,
      "ExecStartPre": 1514,
      "000": 1515,
      "222": 1516,
      "22293": 1517,
      "\"',": 1518,
      "696": 1519,
      "statm": 1520,
      "Ġ777": 1521,
      "2853": 1522,
      "Connect": 1523,
      "Ġmv": 1524,
      "Ġmatch": 1525,
      "SOCK": 1526,
      "Ġftpuser": 1527,
      "module": 1528,
      "KCIxMC": 1529,
      "ZXhl": 1530,
      "group": 1531,
      "swapfile": 1532,
      "Ġ@-": 1533,
      "Peer": 1534,
      "Data": 1535,
      "journal": 1536,
      "sched": 1537,
      "Ġlines": 1538,
      "security": 1539,
      "xMCIsNDQ": 1540,
      "Ġmatching": 1541,
      "ZXhlYy": 1542,
      "!\"": 1543,
      "\"/*": 1544,
      "\")'": 1545,
      "(:": 1546,
      "))": 1547,
      ").": 1548,
      ")\\": 1549,
      ",$": 1550,
      "090": 1551,
      "24": 1552,
      "379": 1553,
      "42": 1554,
      "66": 1555,
      ";$": 1556,
      "Ad": 1557,
      "EN": 1558,
      "END": 1559,
      "Hell": 1560,
      "NvY": 1561,
      "Rem": 1562,
      "To": 1563,
      "\\$(": 1564,
      "ci": 1565,
      "cast": 1566,
      "daily": 1567,
      "fre": 1568,
      "man": 1569,
      "mot": 1570,
      "np": 1571,
      "oc": 1572,
      "os": 1573,
      "ov": 1574,
      "ry": 1575,
      "run": 1576,
      "ring": 1577,
      "rout": 1578,
      "sed": 1579,
      "sdb": 1580,
      "tin": 1581,
      "tch": 1582,
      "tls": 1583,
      "ure": 1584,
      "wr": 1585,
      "xy": 1586,
      "Ġ(": 1587,
      "Ġop": 1588,
      "Ġdata": 1589,
      "Ġ31": 1590,
      "Ġ80": 1591,
      "ĠSocket": 1592,
      "Ġlower": 1593,
      "Ġ8080": 1594,
      "done": 1595,
      "batch": 1596,
      "enfor": 1597,
      "Ġco": 1598,
      "stab": 1599,
      "oneshot": 1600,
      "oriz": 1601,
      "Ġ22": 1602,
      "Ġ25": 1603,
      "Ġ27": 1604,
      "Ġ29": 1605,
      "unit": 1606,
      "Ġsocat": 1607,
      "add": 1608,
      "=\"\\$(": 1609,
      "Ġ./*.": 1610,
      "ames": 1611,
      "profile": 1612,
      "Ġroot": 1613,
      "veryth": 1614,
      "dirname": 1615,
      "Ġunder": 1616,
      ");}'": 1617,
      "647": 1618,
      "sockopt": 1619,
      "limit": 1620,
      "tional": 1621,
      "Ġhttps": 1622,
      "quit": 1623,
      "Ġ30": 1624,
      "Ġ3000": 1625,
      "auditctl": 1626,
      "day": 1627,
      "wall": 1628,
      "wait": 1629,
      "Ġeveryth": 1630,
      "Ġ50": 1631,
      "Ġ5432": 1632,
      "Ġ40": 1633,
      "Ġ45": 1634,
      "Ġ60": 1635,
      "Ġ6379": 1636,
      ")\"',": 1637,
      "packet": 1638,
      "info": 1639,
      "perm": 1640,
      "\"));": 1641,
      "2829": 1642,
      "allow": 1643,
      "Ġ9090": 1644,
      "ftppass": 1645,
      "6563": 1646,
      "Ġ443": 1647,
      "Ġ!=": 1648,
      "=>\"": 1649,
      "write": 1650,
      "writable": 1651,
      "sendback": 1652,
      "byte": 1653,
      "bytes": 1654,
      "comp": 1655,
      "ĠPO": 1656,
      "70656": 1657,
      "Ġcontin": 1658,
      "Connected": 1659,
      "PeerAd": 1660,
      "journalctl": 1661,
      ")\\$": 1662,
      "Hello": 1663,
      "Remov": 1664,
      "Today": 1665,
      "free": 1666,
      "Ġoptional": 1667,
      "Ġeverything": 1668,
      "28292": 1669,
      "Ġcontinue": 1670,
      "PeerAddr": 1671,
      "Removing": 1672,
      "();": 1673,
      "))'": 1674,
      "*;": 1675,
      "-*;": 1676,
      ".'": 1677,
      "/$": 1678,
      "33": 1679,
      "55": 1680,
      "54444": 1681,
      "626": 1682,
      "8732": 1683,
      "93": 1684,
      "96": 1685,
      "99": 1686,
      "=(": 1687,
      "@'": 1688,
      "BT": 1689,
      "Bz": 1690,
      "Bus": 1691,
      "BACK": 1692,
      "DBus": 1693,
      "EG": 1694,
      "EL": 1695,
      "EX": 1696,
      "Get": 1697,
      "HJ": 1698,
      "IC": 1699,
      "JW": 1700,
      "Nr": 1701,
      "PF": 1702,
      "Qg": 1703,
      "Qub": 1704,
      "Rm": 1705,
      "SW": 1706,
      "UQ": 1707,
      "YAM": 1708,
      "aG": 1709,
      "aa": 1710,
      "be": 1711,
      "bn": 1712,
      "cap": 1713,
      "cols": 1714,
      "cue": 1715,
      "cHJ": 1716,
      "din": 1717,
      "el": 1718,
      "ear": 1719,
      "ealth": 1720,
      "fa": 1721,
      "fc": 1722,
      "fy": 1723,
      "fstab": 1724,
      "fwrite": 1725,
      "gment": 1726,
      "ic": 1727,
      "ld": 1728,
      "lit": 1729,
      "lCk": 1730,
      "mV": 1731,
      "mJW": 1732,
      "no": 1733,
      "node": 1734,
      "of": 1735,
      "pID": 1736,
      "pbn": 1737,
      "ro": 1738,
      "rsocket": 1739,
      "sla": 1740,
      "svc": 1741,
      "sLC": 1742,
      "tu": 1743,
      "ten": 1744,
      "top": 1745,
      "uL": 1746,
      "uum": 1747,
      "vac": 1748,
      "vdb": 1749,
      "ws": 1750,
      "wmJW": 1751,
      "yPiYlZ": 1752,
      "})'": 1753,
      "ĠM": 1754,
      "ĠS": 1755,
      "Ġsystem": 1756,
      "Ġmk": 1757,
      "ĠALL": 1758,
      "ĠIO": 1759,
      "ĠOP": 1760,
      "ĠEX": 1761,
      "down": 1762,
      "dout": 1763,
      "stder": 1764,
      "stdin": 1765,
      "stdout": 1766,
      "binary": 1767,
      "binfo": 1768,
      "getproto": 1769,
      "aton": 1770,
      "child": 1771,
      "setsockopt": 1772,
      "lose": 1773,
      "read": 1774,
      "debu": 1775,
      "desk": 1776,
      "ction": 1777,
      "Ġpa": 1778,
      "ard": 1779,
      "arp": 1780,
      "Ġfor": 1781,
      "itor": 1782,
      "Ġ$@'": 1783,
      "unction": 1784,
      "apper": 1785,
      "tify": 1786,
      "backpipe": 1787,
      "common": 1788,
      "cation": 1789,
      "disabled": 1790,
      "NoIC": 1791,
      "cpu": 1792,
      "ressed": 1793,
      "rescue": 1794,
      ");})'": 1795,
      "task": 1796,
      "share": 1797,
      "sysctl": 1798,
      "segment": 1799,
      "sockaddr": 1800,
      "localhost": 1801,
      "/*/": 1802,
      "lication": 1803,
      "Ġws": 1804,
      "Ġwrit": 1805,
      "conn": 1806,
      "Ġ+%": 1807,
      "mluL": 1808,
      "retry": 1809,
      "DOOR": 1810,
      "\");$": 1811,
      "2653": 1812,
      "2633": 1813,
      "random": 1814,
      "crontab": 1815,
      "Ġ35": 1816,
      "Ġ37": 1817,
      "0322": 1818,
      "Ġusermod": 1819,
      "Ġuseradd": 1820,
      "ows": 1821,
      "xzlCk": 1822,
      "Ġ1024": 1823,
      "encoding": 1824,
      "Ġapplication": 1825,
      "ute": 1826,
      "223": 1827,
      "570322": 1828,
      "key": 1829,
      "6574": 1830,
      "CAyPiYlZ": 1831,
      "stats": 1832,
      "(){": 1833,
      "Base": 1834,
      "alloc": 1835,
      "CIsLC": 1836,
      "Backup": 1837,
      "byname": 1838,
      "Ġ440": 1839,
      "KCIvY": 1840,
      "ZXQub": 1841,
      "monitor": 1842,
      "trap": 1843,
      "true": 1844,
      "sendbyte": 1845,
      "=@/": 1846,
      "ĠNOP": 1847,
      "6174": 1848,
      "PiYlZCAyPiYlZ": 1849,
      "ASSW": 1850,
      "czf": 1851,
      "gpg": 1852,
      "signal": 1853,
      "285354444": 1854,
      "modules": 1855,
      "ZXhlYyBz": 1856,
      "66696": 1857,
      "ENSSL": 1858,
      "mand": 1859,
      "route": 1860,
      "wrapper": 1861,
      "enforce": 1862,
      "units": 1863,
      "647570322": 1864,
      "freedesk": 1865,
      "62696": 1866,
      "BTb": 1867,
      "BACKDOOR": 1868,
      "NrZXQub": 1869,
      "QgPiYlZCAyPiYlZ": 1870,
      "RmKCIvY": 1871,
      "YAML": 1872,
      "begin": 1873,
      "cHJpbn": 1874,
      "elnet": 1875,
      "pIDwmJW": 1876,
      "slabinfo": 1877,
      "vacuum": 1878,
      "ĠOPENSSL": 1879,
      "stderr": 1880,
      "getprotobyname": 1881,
      "debug": 1882,
      "Ġwritten": 1883,
      "265322293": 1884,
      "CIsLCxzlCk": 1885,
      "ĠNOPASSW": 1886,
      "ZXhlYyBzcHJpbn": 1887,
      "6475703228732": 1888,
      "freedesktop": 1889,
      "NrZXQubmV": 1890,
      "QgPiYlZCAyPiYlZCIsLCxzlCk": 1891,
      "RmKCIvYmluL": 1892,
      "pIDwmJWQgPiYlZCAyPiYlZCIsLCxzlCk": 1893,
      "ĠNOPASSWD": 1894,
      "ZXhlYyBzcHJpbnRmKCIvYmluL": 1895,
      "\"}": 1896,
      "\"=>": 1897,
      "';": 1898,
      "((": 1899,
      "([\"": 1900,
      ")<": 1901,
      ")}": 1902,
      ")}'": 1903,
      ")\\\"": 1904,
      ",:": 1905,
      ".*": 1906,
      "04": 1907,
      "25": 1908,
      "404": 1909,
      "553": 1910,
      "5432": 1911,
      "60": 1912,
      "62617368202": 1913,
      "86563": 1914,
      ":\"": 1915,
      "</": 1916,
      "=$": 1917,
      "AN": 1918,
      "AR": 1919,
      "Au": 1920,
      "Ay": 1921,
      "BEG": 1922,
      "Bear": 1923,
      "CJ": 1924,
      "CY": 1925,
      "Com": 1926,
      "EC": 1927,
      "EEP": 1928,
      "EAM": 1929,
      "File": 1930,
      "Host": 1931,
      "HNvY": 1932,
      "IV": 1933,
      "JHNvY": 1934,
      "KEEP": 1935,
      "LO": 1936,
      "LW": 1937,
      "Len": 1938,
      "Lck": 1939,
      "My": 1940,
      "NO": 1941,
      "Name": 1942,
      "Nza": 1943,
      "OM": 1944,
      "Ob": 1945,
      "Op": 1946,
      "Ow": 1947,
      "PCY": 1948,
      "RAN": 1949,
      "REAM": 1950,
      "SIX": 1951,
      "SEL": 1952,
      "UX": 1953,
      "WAR": 1954,
      "XCI": 1955,
      "XCJ": 1956,
      "Zn": 1957,
      "aW": 1958,
      "af": 1959,
      "av": 1960,
      "ax": 1961,
      "awk": 1962,
      "ber": 1963,
      "bound": 1964,
      "bod": 1965,
      "cs": 1966,
      "ces": 1967,
      "cing": 1968,
      "cut": 1969,
      "cgroup": 1970,
      "caW": 1971,
      "ew": 1972,
      "eout": 1973,
      "fd": 1974,
      "fer": 1975,
      "fork": 1976,
      "fopen": 1977,
      "flow": 1978,
      "gg": 1979,
      "ges": 1980,
      "gth": 1981,
      "grub": 1982,
      "gPCY": 1983,
      "ho": 1984,
      "hist": 1985,
      "iJ": 1986,
      "ill": 1987,
      "ize": 1988,
      "ked": 1989,
      "kly": 1990,
      "kgPCY": 1991,
      "let": 1992,
      "lnp": 1993,
      "min": 1994,
      "mes": 1995,
      "mode": 1996,
      "mcast": 1997,
      "mMy": 1998,
      "netc": 1999,
      "names": 2000,
      "olu": 2001,
      "pan": 2002,
      "port": 2003,
      "pub": 2004,
      "plu": 2005,
      "pOw": 2006,
      "qw": 2007,
      "rot": 2008,
      "root": 2009,
      "rows": 2010,
      "sl": 2011,
      "sftp": 2012,
      "squit": 2013,
      "sfer": 2014,
      "tect": 2015,
      "tran": 2016,
      "tvc": 2017,
      "ux": 2018,
      "uKCIxMC": 2019,
      "wee": 2020,
      "ward": 2021,
      "yc": 2022,
      "zID": 2023,
      "zXCI": 2024,
      "|&": 2025,
      "ĊĠ": 2026,
      "Ġ;": 2027,
      "ĠC": 2028,
      "ĠT": 2029,
      "Ġb": 2030,
      "Ġsh": 2031,
      "Ġset": 2032,
      "Ġer": 2033,
      "Ġan": 2034,
      "Ġdi": 2035,
      "Ġif": 2036,
      "Ġmkdir": 2037,
      "Ġ34": 2038,
      "Ġmulti": 2039,
      "Ġ73": 2040,
      "ĠSystem": 2041,
      "Ġdefault": 2042,
      "ĠAA": 2043,
      "Ġudp": 2044,
      "Ġbreak": 2045,
      "ĠBear": 2046,
      "Ġqw": 2047,
      "Ġ->": 2048,
      "init": 2049,
      "stealth": 2050,
      "bak": 2051,
      "bind": 2052,
      "getline": 2053,
      "getcap": 2054,
      "getfa": 2055,
      "ation": 2056,
      "enSSL": 2057,
      "enabled": 2058,
      "Ġ\"\\": 2059,
      "lly": 2060,
      "reuse": 2061,
      "remot": 2062,
      "rewall": 2063,
      "ipv": 2064,
      "Ġps": 2065,
      "one": 2066,
      "onn": 2067,
      "Ġfunction": 2068,
      "443": 2069,
      "Ġ21": 2070,
      "Ġ26": 2071,
      "Ġ28": 2072,
      "Ġ2222": 2073,
      "Ġ$'": 2074,
      "Ġtelnet": 2075,
      "eue": 2076,
      "iss": 2077,
      "une": 2078,
      "unked": 2079,
      "Ġnone": 2080,
      "Ġswap": 2081,
      "envi": 2082,
      "=\"))'": 2083,
      "lsof": 2084,
      "export": 2085,
      "failed": 2086,
      "urly": 2087,
      "proxy": 2088,
      "protect": 2089,
      "fifo": 2090,
      "firewall": 2091,
      "thly": 2092,
      "thoriz": 2093,
      "thread": 2094,
      "disable": 2095,
      "execute": 2096,
      "Ġend": 2097,
      "tally": 2098,
      "(\"$(": 2099,
      "syslog": 2100,
      "sysdata": 2101,
      "646174": 2102,
      "sockstat": 2103,
      "mkfifo": 2104,
      "Ġlogin": 2105,
      "Ġext": 2106,
      "3130222": 2107,
      "DOM": 2108,
      "last": 2109,
      "qui": 2110,
      "queue": 2111,
      "Ġ36": 2112,
      "Ġ38": 2113,
      "Ġ39": 2114,
      "dav": 2115,
      "Ġ$((": 2116,
      "Ġprune": 2117,
      "irewall": 2118,
      "Ġ<<<": 2119,
      "encode": 2120,
      "ALIV": 2121,
      "Ġ41": 2122,
      "Ġ43": 2123,
      "Ġ47": 2124,
      "Ġ48": 2125,
      "Ġ49": 2126,
      "\";$": 2127,
      "73646174": 2128,
      "Ġ'*/": 2129,
      "2231302": 2130,
      "INUX": 2131,
      "keys": 2132,
      "pawn": 2133,
      "pages": 2134,
      "65786563": 2135,
      "STREAM": 2136,
      "6379": 2137,
      "GVuKCIxMC": 2138,
      "make": 2139,
      "Ġchunked": 2140,
      "\")));": 2141,
      "28222": 2142,
      "282231302": 2143,
      "Ġflash": 2144,
      "29293": 2145,
      "Ġmount": 2146,
      "CII": 2147,
      "img": 2148,
      "image": 2149,
      "Ġoneshot": 2150,
      "String": 2151,
      "account": 2152,
      "3000": 2153,
      "SSLSocket": 2154,
      "forward": 2155,
      "ntl": 2156,
      "puts": 2157,
      "Ġclose": 2158,
      "mosquit": 2159,
      "split": 2160,
      "ERROR": 2161,
      "9090": 2162,
      "monthly": 2163,
      "pagefault": 2164,
      "authoriz": 2165,
      "PiYzXCI": 2166,
      "...'": 2167,
      "lua": 2168,
      "Ġ@/": 2169,
      "ĠVmLck": 2170,
      "));'": 2171,
      "7973646174": 2172,
      "AAB": 2173,
      "ASCII": 2174,
      "gpXCJ": 2175,
      "igmp": 2176,
      "overt": 2177,
      "overflow": 2178,
      "secure": 2179,
      "seccomp": 2180,
      "lockdown": 2181,
      "Ġnobod": 2182,
      "Ġ12345": 2183,
      "Ġ\\\"$(": 2184,
      "sign": 2185,
      "28532": 2186,
      "SOCKET": 2187,
      "ZXhlYygpXCJ": 2188,
      "motd": 2189,
      "npm": 2190,
      "rings": 2191,
      "xyCom": 2192,
      "Ġcomp": 2193,
      "=\"\\$(/": 2194,
      "limits": 2195,
      "656374": 2196,
      "compressed": 2197,
      "ĠPOST": 2198,
      "ĠPOSIX": 2199,
      "fcntl": 2200,
      "notify": 2201,
      "roxyCom": 2202,
      "tulnp": 2203,
      "ĠSig": 2204,
      "Ġmkfs": 2205,
      "ĠEXEC": 2206,
      "conntrack": 2207,
      "2633203": 2208,
      "keyrings": 2209,
      "\"=>\"/": 2210,
      ")\\\"\",": 2211,
      "5535": 2212,
      "Authoriz": 2213,
      "AyPiYzXCI": 2214,
      "BEGIN": 2215,
      "KEEPALIV": 2216,
      "LWkgPCY": 2217,
      "Length": 2218,
      "NzaC": 2219,
      "Object": 2220,
      "OpenSSL": 2221,
      "RANDOM": 2222,
      "SELINUX": 2223,
      "WARN": 2224,
      "ZnNvY": 2225,
      "boundary": 2226,
      "csv": 2227,
      "ggLWkgPCY": 2228,
      "hourly": 2229,
      "history": 2230,
      "mMyAyPiYzXCI": 2231,
      "netconn": 2232,
      "panic": 2233,
      "plugin": 2234,
      "rotate": 2235,
      "transfer": 2236,
      "tvcGVuKCIxMC": 2237,
      "weekly": 2238,
      "Ġanon": 2239,
      "Ġdig": 2240,
      "Ġ737973646174": 2241,
      "Ġdefaults": 2242,
      "ĠAAAAB": 2243,
      "ĠBearer": 2244,
      "getfacl": 2245,
      "reuseaddr": 2246,
      "remote": 2247,
      "6578656328222": 2248,
      "mosquitto": 2249,
      "authorized": 2250,
      "Ġnobody": 2251,
      "ZXhlYygpXCJcaW": 2252,
      "roxyCommand": 2253,
      "Authorization": 2254,
      "KEEPALIVE": 2255,
      "ggLWkgPCYzID": 2256,
      "mMyAyPiYzXCIpOw": 2257,
      "Ġ73797364617461": 2258
    },
    "merges": [
      [
        "Ġ",
        "-"
      ],
      [
        "e",
        "t"
      ],
      [
        "i",
        "n"
      ],
      [
        "d",
        "o"
      ],
      [
        "s",
        "u"
      ],
      [
        "su",
        "do"
      ],
      [
        "s",
        "h"
      ],
      [
        "s",
        "t"
      ],
      [
        "a",
        "p"
      ],
      [
        "b",
        "a"
      ],
      [
        "b",
        "in"
      ],
      [
        "g",
        "et"
      ],
      [
        "Ġ",
        "ap"
      ],
      [
        "a",
        "t"
      ],
      [
        "Ġap",
        "t"
      ],
      [
        "!",
        "/"
      ],
      [
        "#",
        "!/"
      ],
      [
        "c",
        "h"
      ],
      [
        "ba",
        "sh"
      ],
      [
        "e",
        "n"
      ],
      [
        "s",
        "et"
      ],
      [
        "Ġ",
        "\""
      ],
      [
        "Ġ",
        "/"
      ],
      [
        "e",
        "r"
      ],
      [
        "l",
        "l"
      ],
      [
        "d",
        "at"
      ],
      [
        "ch",
        "o"
      ],
      [
        "i",
        "l"
      ],
      [
        "Ġ",
        "c"
      ],
      [
        "l",
        "o"
      ],
      [
        "Ġ",
        "|"
      ],
      [
        "r",
        "e"
      ],
      [
        "e",
        "cho"
      ],
      [
        "st",
        "a"
      ],
      [
        "d",
        "e"
      ],
      [
        "s",
        "y"
      ],
      [
        "u",
        "r"
      ],
      [
        "u",
        "p"
      ],
      [
        "e",
        "m"
      ],
      [
        "l",
        "e"
      ],
      [
        "1",
        "0"
      ],
      [
        "a",
        "n"
      ],
      [
        "u",
        "s"
      ],
      [
        "st",
        "em"
      ],
      [
        "i",
        "p"
      ],
      [
        "sy",
        "stem"
      ],
      [
        "sta",
        "ll"
      ],
      [
        "lo",
        "g"
      ],
      [
        "Ġ",
        "in"
      ],
      [
        "en",
        "t"
      ],
      [
        "dat",
        "e"
      ],
      [
        "c",
        "t"
      ],
      [
        "c",
        "k"
      ],
      [
        "Ġ",
        "p"
      ],
      [
        "Ġin",
        "stall"
      ],
      [
        "Ġ",
        ">"
      ],
      [
        "Ġ\"",
        "$"
      ],
      [
        "o",
        "n"
      ],
      [
        "up",
        "date"
      ],
      [
        "a",
        "r"
      ],
      [
        "o",
        "r"
      ],
      [
        "Ġ",
        "'"
      ],
      [
        "c",
        "ur"
      ],
      [
        "Ġ",
        "f"
      ],
      [
        "Ġ",
        "Ġ"
      ],
      [
        "Ġ",
        "update"
      ],
      [
        "4",
        "4"
      ],
      [
        "Ġ",
        "."
      ],
      [
        "Ġc",
        "le"
      ],
      [
        "Ġcle",
        "an"
      ],
      [
        "de",
        "v"
      ],
      [
        "i",
        "t"
      ],
      [
        "r",
        "ent"
      ],
      [
        "cur",
        "rent"
      ],
      [
        "a",
        "il"
      ],
      [
        "w",
        "w"
      ],
      [
        "Ġ",
        "echo"
      ],
      [
        "o",
        "p"
      ],
      [
        "Ġ-",
        "-"
      ],
      [
        "dat",
        "a"
      ],
      [
        "ct",
        "l"
      ],
      [
        "Ġ",
        "2"
      ],
      [
        "system",
        "ctl"
      ],
      [
        "Ġ",
        "systemctl"
      ],
      [
        "Ġ",
        "$"
      ],
      [
        "e",
        "s"
      ],
      [
        "n",
        "u"
      ],
      [
        "Ġ",
        "t"
      ],
      [
        "e",
        "u"
      ],
      [
        "i",
        "s"
      ],
      [
        "u",
        "n"
      ],
      [
        "nu",
        "ll"
      ],
      [
        "Ġ",
        "n"
      ],
      [
        "~",
        "/"
      ],
      [
        "Ġ",
        "s"
      ],
      [
        "en",
        "v"
      ],
      [
        "et",
        "c"
      ],
      [
        "Ġ",
        "g"
      ],
      [
        "Ġ",
        "~/"
      ],
      [
        "re",
        "p"
      ],
      [
        "a",
        "d"
      ],
      [
        "b",
        "u"
      ],
      [
        "il",
        "d"
      ],
      [
        "bu",
        "ild"
      ],
      [
        "v",
        "i"
      ],
      [
        "m",
        "p"
      ],
      [
        "=",
        "\""
      ],
      [
        "p",
        "r"
      ],
      [
        ">",
        "/"
      ],
      [
        "us",
        "r"
      ],
      [
        "l",
        "s"
      ],
      [
        "a",
        "l"
      ],
      [
        "Ġ.",
        "/"
      ],
      [
        "ap",
        "p"
      ],
      [
        "Ġp",
        "ip"
      ],
      [
        "e",
        "c"
      ],
      [
        "Ċ",
        "ĠĠ"
      ],
      [
        "ĊĠĠ",
        "Ġ"
      ],
      [
        "e",
        "x"
      ],
      [
        "t",
        "ar"
      ],
      [
        "Ġ",
        "h"
      ],
      [
        "Ġ",
        "re"
      ],
      [
        "j",
        "s"
      ],
      [
        "f",
        "ail"
      ],
      [
        "o",
        "m"
      ],
      [
        "Ġ>",
        "&"
      ],
      [
        "ww",
        "w"
      ],
      [
        "ck",
        "er"
      ],
      [
        "e",
        "fail"
      ],
      [
        "eu",
        "o"
      ],
      [
        "Ġpip",
        "efail"
      ],
      [
        "rep",
        "o"
      ],
      [
        "c",
        "e"
      ],
      [
        "=\"",
        "$"
      ],
      [
        "t",
        "mp"
      ],
      [
        "o",
        "un"
      ],
      [
        "Ġ",
        "is"
      ],
      [
        "d",
        "i"
      ],
      [
        "Ġ|",
        "|"
      ],
      [
        "Ġg",
        "it"
      ],
      [
        "Ġ",
        "st"
      ],
      [
        "oun",
        "d"
      ],
      [
        "Ġ",
        "<"
      ],
      [
        "*",
        "."
      ],
      [
        "or",
        "k"
      ],
      [
        "w",
        "ork"
      ],
      [
        "Ġ",
        "bash"
      ],
      [
        "w",
        "n"
      ],
      [
        "sta",
        "r"
      ],
      [
        "star",
        "t"
      ],
      [
        "Ġ",
        "&"
      ],
      [
        "ur",
        "l"
      ],
      [
        "us",
        "er"
      ],
      [
        "t",
        "i"
      ],
      [
        "g",
        "in"
      ],
      [
        "a",
        "m"
      ],
      [
        "p",
        "ip"
      ],
      [
        "a",
        "b"
      ],
      [
        "pr",
        "o"
      ],
      [
        "gin",
        "x"
      ],
      [
        "s",
        "er"
      ],
      [
        ">",
        "&"
      ],
      [
        "Ġ&",
        "&"
      ],
      [
        "ba",
        "ck"
      ],
      [
        "il",
        "e"
      ],
      [
        "r",
        "a"
      ],
      [
        "v",
        "ar"
      ],
      [
        "o",
        "t"
      ],
      [
        "Ġ",
        "r"
      ],
      [
        "c",
        "om"
      ],
      [
        "ab",
        "le"
      ],
      [
        "in",
        "t"
      ],
      [
        "f",
        "i"
      ],
      [
        "}",
        "\""
      ],
      [
        "=\"$",
        "{"
      ],
      [
        "c",
        "at"
      ],
      [
        "v",
        "e"
      ],
      [
        "44",
        "44"
      ],
      [
        "t",
        "h"
      ],
      [
        "f",
        "ile"
      ],
      [
        "Ġr",
        "m"
      ],
      [
        "s",
        "o"
      ],
      [
        "Ġ",
        "cho"
      ],
      [
        "Ġcho",
        "wn"
      ],
      [
        "r",
        "f"
      ],
      [
        "system",
        "d"
      ],
      [
        "vi",
        "ce"
      ],
      [
        "Ġst",
        "op"
      ],
      [
        "Ġc",
        "p"
      ],
      [
        "Ġ",
        "start"
      ],
      [
        "v",
        "er"
      ],
      [
        "M",
        "E"
      ],
      [
        "z",
        "ip"
      ],
      [
        "s",
        "r"
      ],
      [
        "g",
        "e"
      ],
      [
        "lo",
        "ad"
      ],
      [
        "d",
        "is"
      ],
      [
        "Ġ",
        "a"
      ],
      [
        "di",
        "r"
      ],
      [
        "r",
        "on"
      ],
      [
        "j",
        "q"
      ],
      [
        "a",
        "ge"
      ],
      [
        "t",
        "o"
      ],
      [
        "c",
        "l"
      ],
      [
        "y",
        "th"
      ],
      [
        "Ġ",
        "un"
      ],
      [
        "e",
        "d"
      ],
      [
        "or",
        "t"
      ],
      [
        "N",
        "o"
      ],
      [
        "yth",
        "on"
      ],
      [
        "t",
        "y"
      ],
      [
        "v",
        "env"
      ],
      [
        "Ġ",
        "do"
      ],
      [
        "ex",
        "ec"
      ],
      [
        "Ġ",
        "0"
      ],
      [
        "Ġf",
        "ound"
      ],
      [
        "p",
        "e"
      ],
      [
        "i",
        "f"
      ],
      [
        "u",
        "de"
      ],
      [
        "cl",
        "ude"
      ],
      [
        "'",
        "*."
      ],
      [
        "=",
        "'*."
      ],
      [
        "o",
        "st"
      ],
      [
        "in",
        "clude"
      ],
      [
        "q",
        "l"
      ],
      [
        "ba",
        "n"
      ],
      [
        "Ġh",
        "t"
      ],
      [
        ":",
        "/"
      ],
      [
        "c",
        "p"
      ],
      [
        "ty",
        "pe"
      ],
      [
        "f",
        "in"
      ],
      [
        "fin",
        "d"
      ],
      [
        "re",
        "s"
      ],
      [
        "Ġre",
        "dis"
      ],
      [
        "Ġ",
        "]"
      ],
      [
        ")",
        ";"
      ],
      [
        "g",
        "res"
      ],
      [
        "m",
        "u"
      ],
      [
        "ost",
        "gres"
      ],
      [
        "ostgres",
        "ql"
      ],
      [
        "H",
        "O"
      ],
      [
        "HO",
        "ME"
      ],
      [
        "Ġf",
        "ail"
      ],
      [
        "}",
        "'"
      ],
      [
        "Ġdo",
        "cker"
      ],
      [
        "Ġ",
        "en"
      ],
      [
        "Ġc",
        "url"
      ],
      [
        "m",
        "y"
      ],
      [
        "Ġ",
        "jq"
      ],
      [
        "my",
        "app"
      ],
      [
        "t",
        "a"
      ],
      [
        "i",
        "ve"
      ],
      [
        "tar",
        "get"
      ],
      [
        "ch",
        "ive"
      ],
      [
        "ar",
        "chive"
      ],
      [
        "Ġp",
        "ostgresql"
      ],
      [
        "pro",
        "c"
      ],
      [
        "do",
        "or"
      ],
      [
        "Ġt",
        "h"
      ],
      [
        "(",
        "\""
      ],
      [
        "b",
        "ot"
      ],
      [
        "Ġn",
        "ginx"
      ],
      [
        "Ġth",
        "en"
      ],
      [
        "a",
        "ch"
      ],
      [
        "g",
        "z"
      ],
      [
        "m",
        "d"
      ],
      [
        "Ġ'",
        "{"
      ],
      [
        "ls",
        "e"
      ],
      [
        "Ġh",
        "e"
      ],
      [
        "0",
        "2"
      ],
      [
        "e",
        "lse"
      ],
      [
        "Ġ",
        "*"
      ],
      [
        "sh",
        "a"
      ],
      [
        "sy",
        "s"
      ],
      [
        "back",
        "door"
      ],
      [
        "es",
        "s"
      ],
      [
        "Ġhe",
        "ad"
      ],
      [
        "am",
        "e"
      ],
      [
        "u",
        "f"
      ],
      [
        "us",
        "age"
      ],
      [
        ":",
        "?"
      ],
      [
        ">",
        "}\""
      ],
      [
        "$",
        "("
      ],
      [
        "op",
        "en"
      ],
      [
        "Ġn",
        "et"
      ],
      [
        "s",
        "e"
      ],
      [
        "er",
        "t"
      ],
      [
        "Ġc",
        "ert"
      ],
      [
        "Ġcert",
        "bot"
      ],
      [
        "E",
        "x"
      ],
      [
        "o",
        "ls"
      ],
      [
        "at",
        "ta"
      ],
      [
        "er",
        "vice"
      ],
      [
        "ach",
        "able"
      ],
      [
        "atta",
        "cker"
      ],
      [
        "ti",
        "m"
      ],
      [
        "to",
        "ols"
      ],
      [
        ")",
        "\""
      ],
      [
        "6",
        "4"
      ],
      [
        "o",
        "de"
      ],
      [
        "/",
        "."
      ],
      [
        "g",
        "it"
      ],
      [
        "Ġ",
        "1"
      ],
      [
        "do",
        "w"
      ],
      [
        "sha",
        "dow"
      ],
      [
        "Ġp",
        "ython"
      ],
      [
        "so",
        "ck"
      ],
      [
        ":/",
        "/"
      ],
      [
        "t",
        "cp"
      ],
      [
        "ser",
        "ver"
      ],
      [
        "c",
        "al"
      ],
      [
        "Ġ",
        "uf"
      ],
      [
        "lo",
        "cal"
      ],
      [
        "Ġuf",
        "w"
      ],
      [
        "op",
        "t"
      ],
      [
        "Ġun",
        "zip"
      ],
      [
        ".",
        "/"
      ],
      [
        "p",
        "y"
      ],
      [
        "Ġ",
        "vi"
      ],
      [
        "Ġ",
        "build"
      ],
      [
        "Ġvi",
        "m"
      ],
      [
        "i",
        "o"
      ],
      [
        "i",
        "al"
      ],
      [
        "ent",
        "ial"
      ],
      [
        "Ġn",
        "ode"
      ],
      [
        "ess",
        "ential"
      ],
      [
        "Ġnode",
        "js"
      ],
      [
        "Ġt",
        "mu"
      ],
      [
        "Ġht",
        "op"
      ],
      [
        "Ġtmu",
        "x"
      ],
      [
        "pr",
        "int"
      ],
      [
        "Ġ~/",
        "."
      ],
      [
        "/",
        "*"
      ],
      [
        "m",
        "k"
      ],
      [
        "Ġ",
        "\\"
      ],
      [
        "tim",
        "e"
      ],
      [
        "l",
        "i"
      ],
      [
        "s",
        "s"
      ],
      [
        "t",
        "ra"
      ],
      [
        "sr",
        "v"
      ],
      [
        "e",
        "ct"
      ],
      [
        "Ġs",
        "ort"
      ],
      [
        "3",
        "1"
      ],
      [
        "d",
        "u"
      ],
      [
        "n",
        "ginx"
      ],
      [
        "mk",
        "dir"
      ],
      [
        "r",
        "h"
      ],
      [
        "5",
        "6"
      ],
      [
        "n",
        "et"
      ],
      [
        "n",
        "ame"
      ],
      [
        "c",
        "md"
      ],
      [
        "in",
        "g"
      ],
      [
        "tra",
        "ct"
      ],
      [
        "Ġ",
        "w"
      ],
      [
        "back",
        "up"
      ],
      [
        "s",
        "i"
      ],
      [
        "c",
        "on"
      ],
      [
        "h",
        "t"
      ],
      [
        "Ġ>",
        ">"
      ],
      [
        "3",
        "4"
      ],
      [
        "=",
        "$("
      ],
      [
        "Ġ",
        "log"
      ],
      [
        "li",
        "b"
      ],
      [
        "\"",
        ","
      ],
      [
        "g",
        "rep"
      ],
      [
        "Ġ",
        "+"
      ],
      [
        "Ġ",
        "at"
      ],
      [
        "backup",
        "s"
      ],
      [
        "-",
        "./"
      ],
      [
        ":",
        "-./"
      ],
      [
        "j",
        "ect"
      ],
      [
        "di",
        "st"
      ],
      [
        "2",
        "56"
      ],
      [
        "E",
        "O"
      ],
      [
        "F",
        "ound"
      ],
      [
        "t",
        "p"
      ],
      [
        "ss",
        "l"
      ],
      [
        "EO",
        "F"
      ],
      [
        "Ġ",
        "{"
      ],
      [
        "pro",
        "ject"
      ],
      [
        "sr",
        "c"
      ],
      [
        "project",
        "s"
      ],
      [
        "up",
        "time"
      ],
      [
        "m",
        "l"
      ],
      [
        "r",
        "n"
      ],
      [
        "w",
        "k"
      ],
      [
        "il",
        "es"
      ],
      [
        "y",
        "am"
      ],
      [
        "Ġ'",
        "*."
      ],
      [
        "Ġf",
        "iles"
      ],
      [
        "Ġt",
        "ail"
      ],
      [
        "Ġ",
        "ls"
      ],
      [
        "Ġa",
        "wk"
      ],
      [
        "Ġw",
        "c"
      ],
      [
        "yam",
        "l"
      ],
      [
        "L",
        "int"
      ],
      [
        "a",
        "u"
      ],
      [
        "su",
        "es"
      ],
      [
        "Ġis",
        "sues"
      ],
      [
        "r",
        "et"
      ],
      [
        "ht",
        "ml"
      ],
      [
        "S",
        "ervice"
      ],
      [
        "Ġ",
        "ex"
      ],
      [
        "open",
        "ssl"
      ],
      [
        "3",
        "02"
      ],
      [
        "ser",
        "vice"
      ],
      [
        "=",
        "/"
      ],
      [
        "M",
        "C"
      ],
      [
        "x",
        "MC"
      ],
      [
        "Ġ",
        "openssl"
      ],
      [
        "ec",
        "ret"
      ],
      [
        "31",
        "302"
      ],
      [
        "a",
        "es"
      ],
      [
        "b",
        "c"
      ],
      [
        "c",
        "bc"
      ],
      [
        "Ġ",
        "["
      ],
      [
        "Ġs",
        "ecret"
      ],
      [
        "work",
        "dir"
      ],
      [
        "Ġen",
        "c"
      ],
      [
        "c",
        "r"
      ],
      [
        "Ġg",
        "zip"
      ],
      [
        "js",
        "on"
      ],
      [
        "cr",
        "ip"
      ],
      [
        "z",
        "e"
      ],
      [
        "h",
        "e"
      ],
      [
        "Ġ\"$",
        "("
      ],
      [
        "Ġ\\",
        ";"
      ],
      [
        "si",
        "ze"
      ],
      [
        "Ġ{",
        "}"
      ],
      [
        "l",
        "h"
      ],
      [
        "ba",
        "se"
      ],
      [
        "U",
        "n"
      ],
      [
        "Un",
        "it"
      ],
      [
        "ti",
        "on"
      ],
      [
        "u",
        "b"
      ],
      [
        "S",
        "tar"
      ],
      [
        "ec",
        "Star"
      ],
      [
        "fi",
        "g"
      ],
      [
        "Ġ]",
        ";"
      ],
      [
        "Ex",
        "ecStar"
      ],
      [
        "con",
        "fig"
      ],
      [
        "ExecStar",
        "t"
      ],
      [
        "X",
        "X"
      ],
      [
        "D",
        "es"
      ],
      [
        "g",
        "ra"
      ],
      [
        "Ġen",
        "able"
      ],
      [
        "crip",
        "tion"
      ],
      [
        "Des",
        "cription"
      ],
      [
        "et",
        "he"
      ],
      [
        "om",
        "ethe"
      ],
      [
        "omethe",
        "us"
      ],
      [
        "or",
        "y"
      ],
      [
        "at",
        "us"
      ],
      [
        "Ġ>",
        "/"
      ],
      [
        "B",
        "y"
      ],
      [
        "I",
        "n"
      ],
      [
        "W",
        "an"
      ],
      [
        "n",
        "e"
      ],
      [
        "t",
        "ed"
      ],
      [
        "Ġn",
        "ot"
      ],
      [
        "In",
        "stall"
      ],
      [
        "Wan",
        "ted"
      ],
      [
        "Wanted",
        "By"
      ],
      [
        "0",
        "0"
      ],
      [
        "E",
        "n"
      ],
      [
        "at",
        "e"
      ],
      [
        "D",
        "O"
      ],
      [
        "Ġc",
        "ron"
      ],
      [
        "i",
        "v"
      ],
      [
        "Ġre",
        "ad"
      ],
      [
        "m",
        "ent"
      ],
      [
        "re",
        "achable"
      ],
      [
        "Ġp",
        "ing"
      ],
      [
        "Ġre",
        "achable"
      ],
      [
        "Ġun",
        "reachable"
      ],
      [
        "a",
        "mp"
      ],
      [
        "amp",
        "le"
      ],
      [
        "\"",
        ");"
      ],
      [
        "2",
        "6"
      ],
      [
        "l",
        "a"
      ],
      [
        "r",
        "an"
      ],
      [
        "Ġht",
        "tp"
      ],
      [
        "34",
        "34"
      ],
      [
        "c",
        "ron"
      ],
      [
        "q",
        "u"
      ],
      [
        "so",
        "ur"
      ],
      [
        "ron",
        "ment"
      ],
      [
        ".",
        "\""
      ],
      [
        "a",
        "ct"
      ],
      [
        "d",
        "it"
      ],
      [
        "p",
        "ython"
      ],
      [
        "Ġ",
        "3"
      ],
      [
        "Ġ",
        "venv"
      ],
      [
        "up",
        "gra"
      ],
      [
        "vi",
        "ronment"
      ],
      [
        "au",
        "dit"
      ],
      [
        "En",
        "vironment"
      ],
      [
        "iv",
        "ate"
      ],
      [
        "Ġread",
        "y"
      ],
      [
        "sour",
        "ce"
      ],
      [
        "act",
        "ivate"
      ],
      [
        "upgra",
        "de"
      ],
      [
        "0",
        "3"
      ],
      [
        "d",
        "a"
      ],
      [
        "Ġ",
        "user"
      ],
      [
        "sh",
        "ort"
      ],
      [
        "Ġst",
        "atus"
      ],
      [
        "b",
        "ran"
      ],
      [
        "s",
        "it"
      ],
      [
        "Ġ",
        "repo"
      ],
      [
        "bran",
        "ch"
      ],
      [
        "sit",
        "ory"
      ],
      [
        "Ġrepo",
        "sitory"
      ],
      [
        "O",
        "DO"
      ],
      [
        "T",
        "ODO"
      ],
      [
        "f",
        "an"
      ],
      [
        "Ġ$",
        "("
      ],
      [
        "fan",
        "a"
      ],
      [
        "w",
        "a"
      ],
      [
        "Ġ",
        "base"
      ],
      [
        "Ġp",
        "r"
      ],
      [
        "cur",
        "l"
      ],
      [
        "Ġ",
        "e"
      ],
      [
        "sock",
        "et"
      ],
      [
        "Ġ",
        "x"
      ],
      [
        "Ġpr",
        "ometheus"
      ],
      [
        "e",
        "ck"
      ],
      [
        "x",
        "d"
      ],
      [
        "ch",
        "eck"
      ],
      [
        "Ġx",
        "xd"
      ],
      [
        "e",
        "e"
      ],
      [
        "o",
        "w"
      ],
      [
        "t",
        "er"
      ],
      [
        "Ġ",
        "5"
      ],
      [
        "up",
        "load"
      ],
      [
        "x",
        "z"
      ],
      [
        "y",
        "s"
      ],
      [
        "de",
        "p"
      ],
      [
        "Ġt",
        "r"
      ],
      [
        "net",
        "work"
      ],
      [
        "'",
        ")\""
      ],
      [
        "v",
        "c"
      ],
      [
        "y",
        "q"
      ],
      [
        "Ġ",
        "yq"
      ],
      [
        "Ġt",
        "ee"
      ],
      [
        "Ġ<",
        "&"
      ],
      [
        "A",
        "C"
      ],
      [
        "al",
        "wa"
      ],
      [
        "alwa",
        "ys"
      ],
      [
        "g",
        "o"
      ],
      [
        "Ġ",
        "10"
      ],
      [
        "Ġin",
        "to"
      ],
      [
        "Ġ'",
        "["
      ],
      [
        "Ex",
        "tract"
      ],
      [
        "Ġex",
        "tract"
      ],
      [
        "xz",
        "f"
      ],
      [
        "Extract",
        "ed"
      ],
      [
        "e",
        "b"
      ],
      [
        "i",
        "re"
      ],
      [
        "l",
        "ti"
      ],
      [
        "Ġs",
        "sh"
      ],
      [
        "Ġ<",
        "<"
      ],
      [
        "mu",
        "lti"
      ],
      [
        "+",
        "%"
      ],
      [
        "R",
        "e"
      ],
      [
        "w",
        "eb"
      ],
      [
        "Ġ'",
        "+%"
      ],
      [
        "\\",
        "\""
      ],
      [
        "Ġ",
        "myapp"
      ],
      [
        "'",
        ")"
      ],
      [
        "8",
        "0"
      ],
      [
        "I",
        "X"
      ],
      [
        "ck",
        "et"
      ],
      [
        "n",
        "ow"
      ],
      [
        "en",
        "c"
      ],
      [
        "Ġc",
        "i"
      ],
      [
        "re",
        "load"
      ],
      [
        "Ġs",
        "ed"
      ],
      [
        "Ġs",
        "vc"
      ],
      [
        "Ġg",
        "ra"
      ],
      [
        "wn",
        "load"
      ],
      [
        "Ġ<<",
        "'"
      ],
      [
        "Re",
        "start"
      ],
      [
        "Ġgra",
        "fana"
      ],
      [
        "wnload",
        "s"
      ],
      [
        "A",
        "f"
      ],
      [
        "F",
        "IX"
      ],
      [
        "t",
        "ail"
      ],
      [
        "Ġ",
        "%"
      ],
      [
        "Ġ",
        "da"
      ],
      [
        "Ġ",
        "dep"
      ],
      [
        "lo",
        "y"
      ],
      [
        "em",
        "on"
      ],
      [
        "Ġs",
        "ervice"
      ],
      [
        "ser",
        "ve"
      ],
      [
        "ver",
        "age"
      ],
      [
        "Ġa",
        "verage"
      ],
      [
        "/.",
        "*"
      ],
      [
        "://",
        "')\""
      ],
      [
        "Af",
        "ter"
      ],
      [
        "FIX",
        "ME"
      ],
      [
        "Ġda",
        "emon"
      ],
      [
        "Ġdep",
        "loy"
      ],
      [
        "h",
        "ub"
      ],
      [
        "audit",
        "d"
      ],
      [
        "A",
        "L"
      ],
      [
        "work",
        "er"
      ],
      [
        "S",
        "o"
      ],
      [
        "Ġ",
        "4"
      ],
      [
        "Ġap",
        "p"
      ],
      [
        "So",
        "cket"
      ],
      [
        "AL",
        "L"
      ],
      [
        "Ġ",
        "worker"
      ],
      [
        "ex",
        "ample"
      ],
      [
        "qu",
        "ire"
      ],
      [
        "AC",
        "K"
      ],
      [
        "re",
        "quire"
      ],
      [
        "=\"",
        "~/"
      ],
      [
        "Ġapp",
        "user"
      ],
      [
        "2",
        "03"
      ],
      [
        "s",
        "sh"
      ],
      [
        "2",
        "02"
      ],
      [
        "H",
        "ACK"
      ],
      [
        "s",
        "en"
      ],
      [
        "(\"",
        "/"
      ],
      [
        "\"",
        ";"
      ],
      [
        "p",
        "date"
      ],
      [
        "L",
        "C"
      ],
      [
        "z",
        "cat"
      ],
      [
        "do",
        "m"
      ],
      [
        "XX",
        "X"
      ],
      [
        "7",
        "3"
      ],
      [
        "l",
        "f"
      ],
      [
        "v",
        "m"
      ],
      [
        "Ġ",
        "get"
      ],
      [
        "Ġ'",
        "."
      ],
      [
        "r",
        "c"
      ],
      [
        "Ġ",
        "yaml"
      ],
      [
        "!",
        "@"
      ],
      [
        "#",
        "%"
      ],
      [
        "Z",
        "a"
      ],
      [
        "d",
        "c"
      ],
      [
        "ur",
        "an"
      ],
      [
        "Ġ<",
        "/"
      ],
      [
        "se",
        "lf"
      ],
      [
        "!@",
        "#%"
      ],
      [
        "uran",
        "dom"
      ],
      [
        "!@#%",
        "'"
      ],
      [
        "S",
        "L"
      ],
      [
        "Ġ",
        "6"
      ],
      [
        "Ġ",
        "8"
      ],
      [
        "Ġg",
        "rep"
      ],
      [
        "git",
        "hub"
      ],
      [
        ")",
        "'"
      ],
      [
        "o",
        "d"
      ],
      [
        "ba",
        "sen"
      ],
      [
        "basen",
        "ame"
      ],
      [
        "/",
        "$("
      ],
      [
        "f",
        "s"
      ],
      [
        "bash",
        "rc"
      ],
      [
        "Ġ.",
        "}'"
      ],
      [
        "h",
        "p"
      ],
      [
        "n",
        "c"
      ],
      [
        "Ġ'",
        "*"
      ],
      [
        ")\"",
        "'"
      ],
      [
        "\"",
        ")\""
      ],
      [
        "e",
        "ll"
      ],
      [
        "p",
        "hp"
      ],
      [
        "u",
        "t"
      ],
      [
        "Ġ",
        "TODO"
      ],
      [
        "2",
        "2"
      ],
      [
        "6",
        "3"
      ],
      [
        "a",
        "ve"
      ],
      [
        "e",
        "st"
      ],
      [
        "r",
        "ub"
      ],
      [
        "Ġp",
        "y"
      ],
      [
        "\");",
        "'"
      ],
      [
        "\"",
        "'"
      ],
      [
        "f",
        "sock"
      ],
      [
        "de",
        "st"
      ],
      [
        "Ġt",
        "o"
      ],
      [
        "ne",
        "w"
      ],
      [
        "fsock",
        "open"
      ],
      [
        "5",
        "7"
      ],
      [
        "I",
        "N"
      ],
      [
        "sh",
        "ell"
      ],
      [
        "ver",
        "if"
      ],
      [
        "73",
        "6"
      ],
      [
        "rub",
        "y"
      ],
      [
        "verif",
        "y"
      ],
      [
        "N",
        "D"
      ],
      [
        "k",
        "e"
      ],
      [
        "p",
        "a"
      ],
      [
        "sy",
        "nc"
      ],
      [
        "Ġt",
        "cp"
      ],
      [
        "6",
        "9"
      ],
      [
        "C",
        "P"
      ],
      [
        "T",
        "CP"
      ],
      [
        "do",
        "wnloads"
      ],
      [
        "su",
        "m"
      ],
      [
        "fs",
        "SL"
      ],
      [
        "5",
        "00"
      ],
      [
        "6",
        "57"
      ],
      [
        "S",
        "ave"
      ],
      [
        "a",
        "st"
      ],
      [
        "k",
        "er"
      ],
      [
        "Ġ",
        "4444"
      ],
      [
        "et",
        "ch"
      ],
      [
        "Ġ'",
        "$"
      ],
      [
        "Ġf",
        "etch"
      ],
      [
        "Ġex",
        "ample"
      ],
      [
        "Save",
        "d"
      ],
      [
        "2",
        "00"
      ],
      [
        "7",
        "4"
      ],
      [
        ":",
        "'"
      ],
      [
        "l",
        "int"
      ],
      [
        "u",
        "e"
      ],
      [
        "Ġ",
        "exec"
      ],
      [
        "Ġ",
        "FIXME"
      ],
      [
        "Ġ",
        "verify"
      ],
      [
        "es",
        "lint"
      ],
      [
        "Ġs",
        "print"
      ],
      [
        "Ġ>&",
        "%"
      ],
      [
        ">&",
        "%"
      ],
      [
        "so",
        "cat"
      ],
      [
        "ne",
        "l"
      ],
      [
        "Ġ<&",
        "%"
      ],
      [
        "ker",
        "nel"
      ],
      [
        "Ġsprint",
        "f"
      ],
      [
        "D",
        "o"
      ],
      [
        "S",
        "y"
      ],
      [
        "s",
        "al"
      ],
      [
        "Ġ",
        "sudo"
      ],
      [
        "al",
        "i"
      ],
      [
        "TCP",
        "Socket"
      ],
      [
        "Do",
        "wnloads"
      ],
      [
        "Sy",
        "stem"
      ],
      [
        "sal",
        "t"
      ],
      [
        "I",
        "D"
      ],
      [
        "S",
        "T"
      ],
      [
        "U",
        "pdate"
      ],
      [
        "l",
        "t"
      ],
      [
        "Ġ",
        "sys"
      ],
      [
        "at",
        "h"
      ],
      [
        "3434",
        "3434"
      ],
      [
        "736",
        "8"
      ],
      [
        "ND",
        "Q"
      ],
      [
        "ap",
        "i"
      ],
      [
        "Ġf",
        "ast"
      ],
      [
        "63",
        "7"
      ],
      [
        "System",
        "Update"
      ],
      [
        "7368",
        "202"
      ],
      [
        "Ġfast",
        "api"
      ],
      [
        "6",
        "2"
      ],
      [
        "C",
        "A"
      ],
      [
        "f",
        "au"
      ],
      [
        "f",
        "la"
      ],
      [
        "Ġ",
        "HACK"
      ],
      [
        "69",
        "203"
      ],
      [
        "fau",
        "lt"
      ],
      [
        "fla",
        "ke"
      ],
      [
        ",",
        "\""
      ],
      [
        "1",
        "7368202"
      ],
      [
        "G",
        "V"
      ],
      [
        "m",
        "od"
      ],
      [
        "t",
        "ab"
      ],
      [
        "t",
        "able"
      ],
      [
        "z",
        "a"
      ],
      [
        "Ġ",
        "XXX"
      ],
      [
        "Ġ2",
        "0"
      ],
      [
        ");",
        "$"
      ],
      [
        "64",
        "657"
      ],
      [
        "26",
        "31"
      ],
      [
        "26",
        "202"
      ],
      [
        "26",
        "17368202"
      ],
      [
        "203",
        "03"
      ],
      [
        "74",
        "637"
      ],
      [
        "34343434",
        "20303"
      ],
      [
        "table",
        "s"
      ],
      [
        "64657",
        "62"
      ],
      [
        "74637",
        "02"
      ],
      [
        "Ġ",
        "nu"
      ],
      [
        "st",
        "at"
      ],
      [
        "re",
        "dis"
      ],
      [
        "de",
        "fault"
      ],
      [
        "10",
        "0"
      ],
      [
        "ip",
        "tables"
      ],
      [
        "mp",
        "y"
      ],
      [
        "Ġ1",
        "6"
      ],
      [
        "Ġnu",
        "mpy"
      ],
      [
        "\"",
        ":"
      ],
      [
        "A",
        "v"
      ],
      [
        "F",
        "za"
      ],
      [
        "J",
        "i"
      ],
      [
        "J",
        "j"
      ],
      [
        "R",
        "j"
      ],
      [
        "S",
        "A"
      ],
      [
        "U",
        "T"
      ],
      [
        "Y",
        "m"
      ],
      [
        "Z",
        "GV"
      ],
      [
        "b",
        "la"
      ],
      [
        "c",
        "C"
      ],
      [
        "s",
        "k"
      ],
      [
        "Ġ",
        "7"
      ],
      [
        "Ġ",
        "check"
      ],
      [
        "Ġ",
        "Ym"
      ],
      [
        "in",
        "f"
      ],
      [
        "su",
        "pdate"
      ],
      [
        "sy",
        "supdate"
      ],
      [
        "=\"",
        "./"
      ],
      [
        "pr",
        "ometheus"
      ],
      [
        "ta",
        "SA"
      ],
      [
        "Ġ6",
        "2617368202"
      ],
      [
        "ID",
        "A"
      ],
      [
        "CA",
        "taSA"
      ],
      [
        ",\"",
        ">&"
      ],
      [
        "Av",
        "ZGV"
      ],
      [
        "Fza",
        "CAtaSA"
      ],
      [
        "Ji",
        "AvZGV"
      ],
      [
        "Jj",
        "E"
      ],
      [
        "Rj",
        "cC"
      ],
      [
        "bla",
        "ck"
      ],
      [
        "ĠYm",
        "FzaCAtaSA"
      ],
      [
        "(",
        "$"
      ],
      [
        "5",
        "0"
      ],
      [
        "l",
        "in"
      ],
      [
        "m",
        "a"
      ],
      [
        "r",
        "uf"
      ],
      [
        "Ġ",
        "ch"
      ],
      [
        "Ġ",
        "zcat"
      ],
      [
        "log",
        "file"
      ],
      [
        "Ġn",
        "c"
      ],
      [
        "=\"",
        "/"
      ],
      [
        "tim",
        "er"
      ],
      [
        "pa",
        "ss"
      ],
      [
        "ruf",
        "f"
      ],
      [
        "\"",
        "/"
      ],
      [
        ":",
        ":"
      ],
      [
        "h",
        "ex"
      ],
      [
        "i",
        "st"
      ],
      [
        "p",
        "er"
      ],
      [
        "Ġ",
        "bot"
      ],
      [
        "Ġ",
        "iptables"
      ],
      [
        "or",
        "g"
      ],
      [
        "Ġs",
        "cp"
      ],
      [
        "ach",
        "e"
      ],
      [
        "Ġcron",
        "tab"
      ],
      [
        "Ġbot",
        "o"
      ],
      [
        "(",
        ")"
      ],
      [
        "h",
        "ile"
      ],
      [
        "n",
        "ect"
      ],
      [
        "p",
        "ostgresql"
      ],
      [
        "do",
        "cker"
      ],
      [
        "ch",
        "em"
      ],
      [
        "re",
        "am"
      ],
      [
        "Ġs",
        "ql"
      ],
      [
        "al",
        "chem"
      ],
      [
        "Ġre",
        "qu"
      ],
      [
        "Ġ'{",
        "\""
      ],
      [
        "Ġtr",
        "ue"
      ],
      [
        "est",
        "s"
      ],
      [
        "Ġch",
        "mod"
      ],
      [
        "Ġsql",
        "alchem"
      ],
      [
        "Ġrequ",
        "ests"
      ],
      [
        "Ġsqlalchem",
        "y"
      ],
      [
        "\"",
        ")"
      ],
      [
        "\"",
        "}'"
      ],
      [
        "1",
        "2"
      ],
      [
        "2",
        "8"
      ],
      [
        "B",
        "a"
      ],
      [
        "C",
        "on"
      ],
      [
        "a",
        "ll"
      ],
      [
        "c",
        "ache"
      ],
      [
        "e",
        "v"
      ],
      [
        "i",
        "on"
      ],
      [
        "t",
        "est"
      ],
      [
        "Ġ",
        "d"
      ],
      [
        "Ġf",
        "la"
      ],
      [
        "oun",
        "t"
      ],
      [
        "Ġpy",
        "yaml"
      ],
      [
        "Ġpy",
        "test"
      ],
      [
        "\":",
        "\"/"
      ],
      [
        "2",
        "9"
      ],
      [
        "a",
        "s"
      ],
      [
        "e",
        "p"
      ],
      [
        "Ġ",
        "m"
      ],
      [
        "le",
        "ep"
      ],
      [
        "Ġ1",
        "8"
      ],
      [
        "inf",
        "ra"
      ],
      [
        "C",
        "I"
      ],
      [
        "i",
        "d"
      ],
      [
        "i",
        "m"
      ],
      [
        "o",
        "ot"
      ],
      [
        "o",
        "ut"
      ],
      [
        "r",
        "sync"
      ],
      [
        "Ġ",
        "on"
      ],
      [
        "al",
        "th"
      ],
      [
        "(\"",
        "$"
      ],
      [
        "(\"",
        "%"
      ],
      [
        "Ġ1",
        "1"
      ],
      [
        "gra",
        "fana"
      ],
      [
        "shell",
        "check"
      ],
      [
        "ali",
        "as"
      ],
      [
        "Ġfla",
        "sk"
      ],
      [
        ":",
        "\\\""
      ],
      [
        "E",
        "P"
      ],
      [
        "P",
        "UT"
      ],
      [
        "S",
        "O"
      ],
      [
        "S",
        "t"
      ],
      [
        "a",
        "c"
      ],
      [
        "m",
        "em"
      ],
      [
        "Ġ",
        "9"
      ],
      [
        "en",
        "d"
      ],
      [
        "lo",
        "w"
      ],
      [
        "Ġ2",
        "4"
      ],
      [
        "Ġr",
        "sync"
      ],
      [
        "Ġ'{",
        "\\\""
      ],
      [
        "Ġ1",
        "7"
      ],
      [
        "\\\"",
        "}'"
      ],
      [
        "\\\"",
        ":\\\""
      ],
      [
        "ssh",
        "d"
      ],
      [
        "ST",
        "D"
      ],
      [
        "lin",
        "e"
      ],
      [
        "\\\":\\\"",
        "/"
      ],
      [
        "P",
        "ath"
      ],
      [
        "c",
        "ount"
      ],
      [
        "f",
        "tp"
      ],
      [
        "l",
        "y"
      ],
      [
        "p",
        "ath"
      ],
      [
        "r",
        "it"
      ],
      [
        "Ġ",
        "IN"
      ],
      [
        "st",
        "atus"
      ],
      [
        "an",
        "da"
      ],
      [
        "Ġp",
        "anda"
      ],
      [
        "Ġgit",
        "hub"
      ],
      [
        "Ġ&",
        "'"
      ],
      [
        "Ġdo",
        "ne"
      ],
      [
        "Ġ1",
        "5"
      ],
      [
        "con",
        "nect"
      ],
      [
        "Ba",
        "ck"
      ],
      [
        "ĠIN",
        "PUT"
      ],
      [
        "Ġpanda",
        "s"
      ],
      [
        ")",
        "{"
      ],
      [
        "3",
        "00"
      ],
      [
        "C",
        "EP"
      ],
      [
        "S",
        "SL"
      ],
      [
        "b",
        "y"
      ],
      [
        "d",
        "p"
      ],
      [
        "d",
        "r"
      ],
      [
        "f",
        "il"
      ],
      [
        "f",
        "or"
      ],
      [
        "j",
        "an"
      ],
      [
        "m",
        "ap"
      ],
      [
        "n",
        "t"
      ],
      [
        "w",
        "hile"
      ],
      [
        "Ġ",
        "}'"
      ],
      [
        "Ġ",
        "AC"
      ],
      [
        "us",
        "e"
      ],
      [
        "Ġp",
        "ort"
      ],
      [
        "Ġf",
        "tp"
      ],
      [
        "=\"$",
        "("
      ],
      [
        "pip",
        "e"
      ],
      [
        "Ġ1",
        "9"
      ],
      [
        "\",",
        "$"
      ],
      [
        "Ġex",
        "it"
      ],
      [
        "Ġ3",
        "2"
      ],
      [
        "od",
        "ing"
      ],
      [
        ",\">&",
        "\",$"
      ],
      [
        "Con",
        "t"
      ],
      [
        "Ġd",
        "jan"
      ],
      [
        "low",
        "er"
      ],
      [
        "CEP",
        "T"
      ],
      [
        "ĠAC",
        "CEPT"
      ],
      [
        "Ġdjan",
        "go"
      ],
      [
        "-",
        "%"
      ],
      [
        "6",
        "56"
      ],
      [
        "E",
        "T"
      ],
      [
        "L",
        "ist"
      ],
      [
        "p",
        "t"
      ],
      [
        "p",
        "ty"
      ],
      [
        "s",
        "crip"
      ],
      [
        "t",
        "s"
      ],
      [
        "v",
        "ali"
      ],
      [
        "w",
        "d"
      ],
      [
        "Ġ",
        "="
      ],
      [
        "ver",
        "si"
      ],
      [
        "proc",
        "ess"
      ],
      [
        "Ġ1",
        "4"
      ],
      [
        "ht",
        "tp"
      ],
      [
        "34",
        "5"
      ],
      [
        "80",
        "80"
      ],
      [
        "St",
        "ream"
      ],
      [
        "Cont",
        "ent"
      ],
      [
        "versi",
        "on"
      ],
      [
        "\"",
        "]"
      ],
      [
        "5",
        "3"
      ],
      [
        "A",
        "c"
      ],
      [
        "T",
        "im"
      ],
      [
        "[",
        "\""
      ],
      [
        "h",
        "ost"
      ],
      [
        "i",
        "es"
      ],
      [
        "m",
        "nt"
      ],
      [
        "p",
        "ut"
      ],
      [
        "s",
        "cp"
      ],
      [
        "y",
        "es"
      ],
      [
        "Ġ",
        "44"
      ],
      [
        "Ġ",
        "attacker"
      ],
      [
        "Ġ",
        "sysupdate"
      ],
      [
        "en",
        "Stream"
      ],
      [
        "Ġ\"",
        "./"
      ],
      [
        "Ġc",
        "lo"
      ],
      [
        "Ġ'",
        "/"
      ],
      [
        "ce",
        "pt"
      ],
      [
        "li",
        "st"
      ],
      [
        "tra",
        "ck"
      ],
      [
        "socket",
        "s"
      ],
      [
        "63",
        "6"
      ],
      [
        "pass",
        "wd"
      ],
      [
        "Back",
        "door"
      ],
      [
        "fil",
        "ter"
      ],
      [
        "List",
        "enStream"
      ],
      [
        "scrip",
        "ts"
      ],
      [
        "Ac",
        "cept"
      ],
      [
        "@",
        "."
      ],
      [
        "B",
        "oot"
      ],
      [
        "E",
        "R"
      ],
      [
        "O",
        "n"
      ],
      [
        "P",
        "S"
      ],
      [
        "S",
        "ec"
      ],
      [
        "c",
        "ess"
      ],
      [
        "c",
        "oding"
      ],
      [
        "f",
        "f"
      ],
      [
        "m",
        "o"
      ],
      [
        "s",
        "p"
      ],
      [
        "s",
        "leep"
      ],
      [
        "w",
        "ap"
      ],
      [
        "Ġ",
        "!"
      ],
      [
        "Ġ\"",
        "~/"
      ],
      [
        "sta",
        "mp"
      ],
      [
        "th",
        "is"
      ],
      [
        "con",
        "f"
      ],
      [
        "En",
        "coding"
      ],
      [
        "dep",
        "end"
      ],
      [
        "enc",
        "ies"
      ],
      [
        "12",
        "345"
      ],
      [
        "ev",
        "al"
      ],
      [
        "29",
        "3"
      ],
      [
        "ac",
        "cess"
      ],
      [
        "vali",
        "date"
      ],
      [
        "Tim",
        "er"
      ],
      [
        "Boot",
        "Sec"
      ],
      [
        "ER",
        "R"
      ],
      [
        "On",
        "BootSec"
      ],
      [
        "depend",
        "encies"
      ],
      [
        "9",
        "0"
      ],
      [
        "=",
        ">"
      ],
      [
        "C",
        "k"
      ],
      [
        "D",
        "ire"
      ],
      [
        "K",
        "CI"
      ],
      [
        "P",
        "i"
      ],
      [
        "Z",
        "X"
      ],
      [
        "a",
        "k"
      ],
      [
        "c",
        "all"
      ],
      [
        "d",
        "b"
      ],
      [
        "g",
        "r"
      ],
      [
        "m",
        "on"
      ],
      [
        "n",
        "g"
      ],
      [
        "n",
        "al"
      ],
      [
        "p",
        "am"
      ],
      [
        "p",
        "age"
      ],
      [
        "t",
        "r"
      ],
      [
        "u",
        "ll"
      ],
      [
        "w",
        "rit"
      ],
      [
        "y",
        "le"
      ],
      [
        "y",
        "pe"
      ],
      [
        "Ġ",
        "backdoor"
      ],
      [
        "sudo",
        "er"
      ],
      [
        "st",
        "yle"
      ],
      [
        "Ġ\"",
        "/"
      ],
      [
        "lo",
        "ng"
      ],
      [
        "ct",
        "ory"
      ],
      [
        "Ġp",
        "ull"
      ],
      [
        "on",
        "ly"
      ],
      [
        "is",
        "o"
      ],
      [
        "cl",
        "i"
      ],
      [
        "Ġ1",
        "3"
      ],
      [
        "au",
        "th"
      ],
      [
        "la",
        "h"
      ],
      [
        "sen",
        "d"
      ],
      [
        "IN",
        "ET"
      ],
      [
        "ma",
        "x"
      ],
      [
        "per",
        "l"
      ],
      [
        "ev",
        "ent"
      ],
      [
        "by",
        "t"
      ],
      [
        "map",
        "s"
      ],
      [
        "\"]",
        ";"
      ],
      [
        "Ġclo",
        "ne"
      ],
      [
        "Dire",
        "ctory"
      ],
      [
        "Pi",
        "Y"
      ],
      [
        "sudoer",
        "s"
      ],
      [
        "(",
        "`"
      ],
      [
        ")",
        "[\""
      ],
      [
        ".",
        "."
      ],
      [
        "3",
        "2"
      ],
      [
        "7",
        "7"
      ],
      [
        "=",
        "@"
      ],
      [
        ">",
        ">/"
      ],
      [
        "I",
        "O"
      ],
      [
        "J",
        "SO"
      ],
      [
        "T",
        "ype"
      ],
      [
        "V",
        "m"
      ],
      [
        "a",
        "g"
      ],
      [
        "c",
        "o"
      ],
      [
        "d",
        "er"
      ],
      [
        "l",
        "u"
      ],
      [
        "p",
        "ar"
      ],
      [
        "r",
        "s"
      ],
      [
        "s",
        "ess"
      ],
      [
        "s",
        "wap"
      ],
      [
        "v",
        "Y"
      ],
      [
        "Ġ",
        ")"
      ],
      [
        "Ġ",
        "@"
      ],
      [
        "Ġ",
        "N"
      ],
      [
        "Ġ",
        "Vm"
      ],
      [
        "st",
        "ream"
      ],
      [
        "en",
        "an"
      ],
      [
        "sta",
        "ck"
      ],
      [
        "Ġs",
        "leep"
      ],
      [
        "ad",
        "dr"
      ],
      [
        "pro",
        "to"
      ],
      [
        "Ġr",
        "un"
      ],
      [
        "int",
        "enan"
      ],
      [
        "ge",
        "d"
      ],
      [
        "time",
        "out"
      ],
      [
        "DO",
        "UT"
      ],
      [
        "73",
        "2"
      ],
      [
        "ST",
        "DOUT"
      ],
      [
        "ma",
        "intenan"
      ],
      [
        "\")",
        "."
      ],
      [
        "STD",
        "IN"
      ],
      [
        "STD",
        "ERR"
      ],
      [
        "cli",
        "ent"
      ],
      [
        "JSO",
        "N"
      ],
      [
        "sess",
        "ion"
      ],
      [
        "maintenan",
        "ce"
      ],
      [
        ")",
        ");"
      ],
      [
        "-",
        "$"
      ],
      [
        "4",
        "32"
      ],
      [
        "6",
        "1"
      ],
      [
        "7",
        "9"
      ],
      [
        ";",
        "}"
      ],
      [
        "=",
        "`"
      ],
      [
        "A",
        "A"
      ],
      [
        "A",
        "M"
      ],
      [
        "C",
        "K"
      ],
      [
        "O",
        "P"
      ],
      [
        "P",
        "e"
      ],
      [
        "`",
        ";"
      ],
      [
        "`",
        ")[\""
      ],
      [
        "b",
        "re"
      ],
      [
        "d",
        "ing"
      ],
      [
        "e",
        "sh"
      ],
      [
        "l",
        "Z"
      ],
      [
        "l",
        "ate"
      ],
      [
        "n",
        "s"
      ],
      [
        "u",
        "dp"
      ],
      [
        "Ġ",
        "P"
      ],
      [
        "Ġ",
        "always"
      ],
      [
        "Ġ",
        "line"
      ],
      [
        "st",
        "ent"
      ],
      [
        "Ġ/",
        ":/"
      ],
      [
        "re",
        "f"
      ],
      [
        "re",
        "start"
      ],
      [
        "on",
        "ding"
      ],
      [
        "ar",
        "y"
      ],
      [
        "Ġ'",
        "#!/"
      ],
      [
        "Ġs",
        "ave"
      ],
      [
        "pr",
        "iv"
      ],
      [
        "Ġh",
        "ost"
      ],
      [
        "Ġre",
        "sp"
      ],
      [
        "ile",
        "ged"
      ],
      [
        "Ġhe",
        "alth"
      ],
      [
        "sys",
        "call"
      ],
      [
        "Ġnet",
        "filter"
      ],
      [
        "Ex",
        "ist"
      ],
      [
        "Ġw",
        "hile"
      ],
      [
        "si",
        "stent"
      ],
      [
        "he",
        "alth"
      ],
      [
        "fs",
        "S"
      ],
      [
        "per",
        "sistent"
      ],
      [
        "12",
        "7"
      ],
      [
        "mem",
        "ory"
      ],
      [
        "Path",
        "Exist"
      ],
      [
        "){",
        "$"
      ],
      [
        "dp",
        "ort"
      ],
      [
        "PiY",
        "lZ"
      ],
      [
        "ag",
        "ent"
      ],
      [
        "par",
        "se"
      ],
      [
        "rs",
        "a"
      ],
      [
        "bre",
        "ak"
      ],
      [
        "esh",
        "ot"
      ],
      [
        "late",
        "st"
      ],
      [
        "priv",
        "ileged"
      ],
      [
        "Ġresp",
        "onding"
      ],
      [
        "Ġhealth",
        "y"
      ],
      [
        "PathExist",
        "s"
      ],
      [
        "'",
        "\""
      ],
      [
        "-",
        ">"
      ],
      [
        "7",
        "0"
      ],
      [
        "A",
        "S"
      ],
      [
        "D",
        "at"
      ],
      [
        "I",
        "s"
      ],
      [
        "N",
        "Ck"
      ],
      [
        "O",
        "R"
      ],
      [
        "P",
        "re"
      ],
      [
        "Y",
        "y"
      ],
      [
        "c",
        "z"
      ],
      [
        "c",
        "ode"
      ],
      [
        "f",
        "o"
      ],
      [
        "g",
        "p"
      ],
      [
        "h",
        "l"
      ],
      [
        "i",
        "g"
      ],
      [
        "i",
        "z"
      ],
      [
        "j",
        "o"
      ],
      [
        "m",
        "it"
      ],
      [
        "o",
        "up"
      ],
      [
        "o",
        "cat"
      ],
      [
        "o",
        "ver"
      ],
      [
        "s",
        "bin"
      ],
      [
        "s",
        "ch"
      ],
      [
        "s",
        "ec"
      ],
      [
        "u",
        "m"
      ],
      [
        "Ġ",
        "www"
      ],
      [
        "Ġ",
        "lin"
      ],
      [
        "Ġ",
        "list"
      ],
      [
        "in",
        "et"
      ],
      [
        "at",
        "ch"
      ],
      [
        "Ġc",
        "on"
      ],
      [
        "lo",
        "ck"
      ],
      [
        "de",
        "code"
      ],
      [
        "ur",
        "nal"
      ],
      [
        "Ġp",
        "am"
      ],
      [
        "cur",
        "it"
      ],
      [
        "Ġf",
        "ile"
      ],
      [
        "ail",
        "y"
      ],
      [
        "Ġn",
        "o"
      ],
      [
        "ex",
        "t"
      ],
      [
        "able",
        "d"
      ],
      [
        "se",
        "curit"
      ],
      [
        "Ġ1",
        "2"
      ],
      [
        "Ġ\\",
        "\""
      ],
      [
        "du",
        "le"
      ],
      [
        "si",
        "g"
      ],
      [
        "\",",
        "\""
      ],
      [
        "xMC",
        "Is"
      ],
      [
        "ExecStart",
        "Pre"
      ],
      [
        "00",
        "0"
      ],
      [
        "22",
        "2"
      ],
      [
        "22",
        "293"
      ],
      [
        "\"'",
        ","
      ],
      [
        "69",
        "6"
      ],
      [
        "stat",
        "m"
      ],
      [
        "Ġ7",
        "77"
      ],
      [
        "28",
        "53"
      ],
      [
        "Con",
        "nect"
      ],
      [
        "Ġm",
        "v"
      ],
      [
        "Ġm",
        "atch"
      ],
      [
        "SO",
        "CK"
      ],
      [
        "Ġftp",
        "user"
      ],
      [
        "mo",
        "dule"
      ],
      [
        "KCI",
        "xMC"
      ],
      [
        "ZX",
        "hl"
      ],
      [
        "gr",
        "oup"
      ],
      [
        "swap",
        "file"
      ],
      [
        "Ġ@",
        "-"
      ],
      [
        "Pe",
        "er"
      ],
      [
        "Dat",
        "a"
      ],
      [
        "jo",
        "urnal"
      ],
      [
        "sch",
        "ed"
      ],
      [
        "Ġlin",
        "es"
      ],
      [
        "securit",
        "y"
      ],
      [
        "xMCIs",
        "NDQ"
      ],
      [
        "Ġmatch",
        "ing"
      ],
      [
        "ZXhl",
        "Yy"
      ],
      [
        "!",
        "\""
      ],
      [
        "\"",
        "/*"
      ],
      [
        "\"",
        ")'"
      ],
      [
        "(",
        ":"
      ],
      [
        ")",
        ")"
      ],
      [
        ")",
        "."
      ],
      [
        ")",
        "\\"
      ],
      [
        ",",
        "$"
      ],
      [
        "0",
        "90"
      ],
      [
        "2",
        "4"
      ],
      [
        "3",
        "79"
      ],
      [
        "4",
        "2"
      ],
      [
        "6",
        "6"
      ],
      [
        ";",
        "$"
      ],
      [
        "A",
        "d"
      ],
      [
        "E",
        "N"
      ],
      [
        "E",
        "ND"
      ],
      [
        "H",
        "ell"
      ],
      [
        "N",
        "vY"
      ],
      [
        "R",
        "em"
      ],
      [
        "T",
        "o"
      ],
      [
        "\\",
        "$("
      ],
      [
        "c",
        "i"
      ],
      [
        "c",
        "ast"
      ],
      [
        "d",
        "aily"
      ],
      [
        "f",
        "re"
      ],
      [
        "m",
        "an"
      ],
      [
        "m",
        "ot"
      ],
      [
        "n",
        "p"
      ],
      [
        "o",
        "c"
      ],
      [
        "o",
        "s"
      ],
      [
        "o",
        "v"
      ],
      [
        "r",
        "y"
      ],
      [
        "r",
        "un"
      ],
      [
        "r",
        "ing"
      ],
      [
        "r",
        "out"
      ],
      [
        "s",
        "ed"
      ],
      [
        "s",
        "db"
      ],
      [
        "t",
        "in"
      ],
      [
        "t",
        "ch"
      ],
      [
        "t",
        "ls"
      ],
      [
        "u",
        "re"
      ],
      [
        "w",
        "r"
      ],
      [
        "x",
        "y"
      ],
      [
        "Ġ",
        "("
      ],
      [
        "Ġ",
        "op"
      ],
      [
        "Ġ",
        "data"
      ],
      [
        "Ġ",
        "31"
      ],
      [
        "Ġ",
        "80"
      ],
      [
        "Ġ",
        "Socket"
      ],
      [
        "Ġ",
        "lower"
      ],
      [
        "Ġ",
        "8080"
      ],
      [
        "do",
        "ne"
      ],
      [
        "ba",
        "tch"
      ],
      [
        "en",
        "for"
      ],
      [
        "Ġc",
        "o"
      ],
      [
        "sta",
        "b"
      ],
      [
        "on",
        "eshot"
      ],
      [
        "or",
        "iz"
      ],
      [
        "Ġ2",
        "2"
      ],
      [
        "Ġ2",
        "5"
      ],
      [
        "Ġ2",
        "7"
      ],
      [
        "Ġ2",
        "9"
      ],
      [
        "un",
        "it"
      ],
      [
        "Ġs",
        "ocat"
      ],
      [
        "ad",
        "d"
      ],
      [
        "=\"",
        "\\$("
      ],
      [
        "Ġ./",
        "*."
      ],
      [
        "am",
        "es"
      ],
      [
        "pro",
        "file"
      ],
      [
        "Ġr",
        "oot"
      ],
      [
        "ver",
        "yth"
      ],
      [
        "dir",
        "name"
      ],
      [
        "Ġun",
        "der"
      ],
      [
        ");",
        "}'"
      ],
      [
        "64",
        "7"
      ],
      [
        "sock",
        "opt"
      ],
      [
        "li",
        "mit"
      ],
      [
        "tion",
        "al"
      ],
      [
        "Ġhttp",
        "s"
      ],
      [
        "qu",
        "it"
      ],
      [
        "Ġ3",
        "0"
      ],
      [
        "Ġ3",
        "000"
      ],
      [
        "audit",
        "ctl"
      ],
      [
        "da",
        "y"
      ],
      [
        "wa",
        "ll"
      ],
      [
        "wa",
        "it"
      ],
      [
        "Ġe",
        "veryth"
      ],
      [
        "Ġ5",
        "0"
      ],
      [
        "Ġ5",
        "432"
      ],
      [
        "Ġ4",
        "0"
      ],
      [
        "Ġ4",
        "5"
      ],
      [
        "Ġ6",
        "0"
      ],
      [
        "Ġ6",
        "379"
      ],
      [
        ")\"'",
        ","
      ],
      [
        "pa",
        "cket"
      ],
      [
        "inf",
        "o"
      ],
      [
        "per",
        "m"
      ],
      [
        "\")",
        ");"
      ],
      [
        "28",
        "29"
      ],
      [
        "all",
        "ow"
      ],
      [
        "Ġ9",
        "090"
      ],
      [
        "ftp",
        "pass"
      ],
      [
        "656",
        "3"
      ],
      [
        "Ġ44",
        "3"
      ],
      [
        "Ġ!",
        "="
      ],
      [
        "=>",
        "\""
      ],
      [
        "writ",
        "e"
      ],
      [
        "writ",
        "able"
      ],
      [
        "send",
        "back"
      ],
      [
        "byt",
        "e"
      ],
      [
        "byt",
        "es"
      ],
      [
        "co",
        "mp"
      ],
      [
        "ĠP",
        "O"
      ],
      [
        "70",
        "656"
      ],
      [
        "Ġcon",
        "tin"
      ],
      [
        "Connect",
        "ed"
      ],
      [
        "Peer",
        "Ad"
      ],
      [
        "journal",
        "ctl"
      ],
      [
        ")\\",
        "$"
      ],
      [
        "Hell",
        "o"
      ],
      [
        "Rem",
        "ov"
      ],
      [
        "To",
        "day"
      ],
      [
        "fre",
        "e"
      ],
      [
        "Ġop",
        "tional"
      ],
      [
        "Ġeveryth",
        "ing"
      ],
      [
        "2829",
        "2"
      ],
      [
        "Ġcontin",
        "ue"
      ],
      [
        "PeerAd",
        "dr"
      ],
      [
        "Remov",
        "ing"
      ],
      [
        "(",
        ");"
      ],
      [
        ")",
        ")'"
      ],
      [
        "*",
        ";"
      ],
      [
        "-",
        "*;"
      ],
      [
        ".",
        "'"
      ],
      [
        "/",
        "$"
      ],
      [
        "3",
        "3"
      ],
      [
        "5",
        "5"
      ],
      [
        "5",
        "4444"
      ],
      [
        "6",
        "26"
      ],
      [
        "8",
        "732"
      ],
      [
        "9",
        "3"
      ],
      [
        "9",
        "6"
      ],
      [
        "9",
        "9"
      ],
      [
        "=",
        "("
      ],
      [
        "@",
        "'"
      ],
      [
        "B",
        "T"
      ],
      [
        "B",
        "z"
      ],
      [
        "B",
        "us"
      ],
      [
        "B",
        "ACK"
      ],
      [
        "D",
        "Bus"
      ],
      [
        "E",
        "G"
      ],
      [
        "E",
        "L"
      ],
      [
        "E",
        "X"
      ],
      [
        "G",
        "et"
      ],
      [
        "H",
        "J"
      ],
      [
        "I",
        "C"
      ],
      [
        "J",
        "W"
      ],
      [
        "N",
        "r"
      ],
      [
        "P",
        "F"
      ],
      [
        "Q",
        "g"
      ],
      [
        "Q",
        "ub"
      ],
      [
        "R",
        "m"
      ],
      [
        "S",
        "W"
      ],
      [
        "U",
        "Q"
      ],
      [
        "Y",
        "AM"
      ],
      [
        "a",
        "G"
      ],
      [
        "a",
        "a"
      ],
      [
        "b",
        "e"
      ],
      [
        "b",
        "n"
      ],
      [
        "c",
        "ap"
      ],
      [
        "c",
        "ols"
      ],
      [
        "c",
        "ue"
      ],
      [
        "c",
        "HJ"
      ],
      [
        "d",
        "in"
      ],
      [
        "e",
        "l"
      ],
      [
        "e",
        "ar"
      ],
      [
        "e",
        "alth"
      ],
      [
        "f",
        "a"
      ],
      [
        "f",
        "c"
      ],
      [
        "f",
        "y"
      ],
      [
        "f",
        "stab"
      ],
      [
        "f",
        "write"
      ],
      [
        "g",
        "ment"
      ],
      [
        "i",
        "c"
      ],
      [
        "l",
        "d"
      ],
      [
        "l",
        "it"
      ],
      [
        "l",
        "Ck"
      ],
      [
        "m",
        "V"
      ],
      [
        "m",
        "JW"
      ],
      [
        "n",
        "o"
      ],
      [
        "n",
        "ode"
      ],
      [
        "o",
        "f"
      ],
      [
        "p",
        "ID"
      ],
      [
        "p",
        "bn"
      ],
      [
        "r",
        "o"
      ],
      [
        "r",
        "socket"
      ],
      [
        "s",
        "la"
      ],
      [
        "s",
        "vc"
      ],
      [
        "s",
        "LC"
      ],
      [
        "t",
        "u"
      ],
      [
        "t",
        "en"
      ],
      [
        "t",
        "op"
      ],
      [
        "u",
        "L"
      ],
      [
        "u",
        "um"
      ],
      [
        "v",
        "ac"
      ],
      [
        "v",
        "db"
      ],
      [
        "w",
        "s"
      ],
      [
        "w",
        "mJW"
      ],
      [
        "y",
        "PiYlZ"
      ],
      [
        "}",
        ")'"
      ],
      [
        "Ġ",
        "M"
      ],
      [
        "Ġ",
        "S"
      ],
      [
        "Ġ",
        "system"
      ],
      [
        "Ġ",
        "mk"
      ],
      [
        "Ġ",
        "ALL"
      ],
      [
        "Ġ",
        "IO"
      ],
      [
        "Ġ",
        "OP"
      ],
      [
        "Ġ",
        "EX"
      ],
      [
        "do",
        "wn"
      ],
      [
        "do",
        "ut"
      ],
      [
        "st",
        "der"
      ],
      [
        "st",
        "din"
      ],
      [
        "st",
        "dout"
      ],
      [
        "bin",
        "ary"
      ],
      [
        "bin",
        "fo"
      ],
      [
        "get",
        "proto"
      ],
      [
        "at",
        "on"
      ],
      [
        "ch",
        "ild"
      ],
      [
        "set",
        "sockopt"
      ],
      [
        "lo",
        "se"
      ],
      [
        "re",
        "ad"
      ],
      [
        "de",
        "bu"
      ],
      [
        "de",
        "sk"
      ],
      [
        "ct",
        "ion"
      ],
      [
        "Ġp",
        "a"
      ],
      [
        "ar",
        "d"
      ],
      [
        "ar",
        "p"
      ],
      [
        "Ġf",
        "or"
      ],
      [
        "it",
        "or"
      ],
      [
        "Ġ$",
        "@'"
      ],
      [
        "un",
        "ction"
      ],
      [
        "app",
        "er"
      ],
      [
        "ti",
        "fy"
      ],
      [
        "back",
        "pipe"
      ],
      [
        "com",
        "mon"
      ],
      [
        "cat",
        "ion"
      ],
      [
        "dis",
        "abled"
      ],
      [
        "No",
        "IC"
      ],
      [
        "cp",
        "u"
      ],
      [
        "res",
        "sed"
      ],
      [
        "res",
        "cue"
      ],
      [
        ");",
        "})'"
      ],
      [
        "ta",
        "sk"
      ],
      [
        "sha",
        "re"
      ],
      [
        "sys",
        "ctl"
      ],
      [
        "se",
        "gment"
      ],
      [
        "sock",
        "addr"
      ],
      [
        "local",
        "host"
      ],
      [
        "/*",
        "/"
      ],
      [
        "li",
        "cation"
      ],
      [
        "Ġw",
        "s"
      ],
      [
        "Ġw",
        "rit"
      ],
      [
        "con",
        "n"
      ],
      [
        "Ġ+",
        "%"
      ],
      [
        "ml",
        "uL"
      ],
      [
        "ret",
        "ry"
      ],
      [
        "DO",
        "OR"
      ],
      [
        "\");",
        "$"
      ],
      [
        "26",
        "53"
      ],
      [
        "26",
        "33"
      ],
      [
        "ran",
        "dom"
      ],
      [
        "cron",
        "tab"
      ],
      [
        "Ġ3",
        "5"
      ],
      [
        "Ġ3",
        "7"
      ],
      [
        "03",
        "22"
      ],
      [
        "Ġuser",
        "mod"
      ],
      [
        "Ġuser",
        "add"
      ],
      [
        "ow",
        "s"
      ],
      [
        "xz",
        "lCk"
      ],
      [
        "Ġ10",
        "24"
      ],
      [
        "enc",
        "oding"
      ],
      [
        "Ġapp",
        "lication"
      ],
      [
        "ut",
        "e"
      ],
      [
        "22",
        "3"
      ],
      [
        "57",
        "0322"
      ],
      [
        "ke",
        "y"
      ],
      [
        "657",
        "4"
      ],
      [
        "CA",
        "yPiYlZ"
      ],
      [
        "stat",
        "s"
      ],
      [
        "()",
        "{"
      ],
      [
        "Ba",
        "se"
      ],
      [
        "all",
        "oc"
      ],
      [
        "CI",
        "sLC"
      ],
      [
        "Back",
        "up"
      ],
      [
        "by",
        "name"
      ],
      [
        "Ġ44",
        "0"
      ],
      [
        "KCI",
        "vY"
      ],
      [
        "ZX",
        "Qub"
      ],
      [
        "mon",
        "itor"
      ],
      [
        "tr",
        "ap"
      ],
      [
        "tr",
        "ue"
      ],
      [
        "send",
        "byte"
      ],
      [
        "=@",
        "/"
      ],
      [
        "ĠN",
        "OP"
      ],
      [
        "61",
        "74"
      ],
      [
        "PiYlZ",
        "CAyPiYlZ"
      ],
      [
        "AS",
        "SW"
      ],
      [
        "cz",
        "f"
      ],
      [
        "gp",
        "g"
      ],
      [
        "sig",
        "nal"
      ],
      [
        "2853",
        "54444"
      ],
      [
        "module",
        "s"
      ],
      [
        "ZXhlYy",
        "Bz"
      ],
      [
        "66",
        "696"
      ],
      [
        "EN",
        "SSL"
      ],
      [
        "man",
        "d"
      ],
      [
        "rout",
        "e"
      ],
      [
        "wr",
        "apper"
      ],
      [
        "enfor",
        "ce"
      ],
      [
        "unit",
        "s"
      ],
      [
        "647",
        "570322"
      ],
      [
        "free",
        "desk"
      ],
      [
        "626",
        "96"
      ],
      [
        "BT",
        "b"
      ],
      [
        "BACK",
        "DOOR"
      ],
      [
        "Nr",
        "ZXQub"
      ],
      [
        "Qg",
        "PiYlZCAyPiYlZ"
      ],
      [
        "Rm",
        "KCIvY"
      ],
      [
        "YAM",
        "L"
      ],
      [
        "be",
        "gin"
      ],
      [
        "cHJ",
        "pbn"
      ],
      [
        "el",
        "net"
      ],
      [
        "pID",
        "wmJW"
      ],
      [
        "sla",
        "binfo"
      ],
      [
        "vac",
        "uum"
      ],
      [
        "ĠOP",
        "ENSSL"
      ],
      [
        "stder",
        "r"
      ],
      [
        "getproto",
        "byname"
      ],
      [
        "debu",
        "g"
      ],
      [
        "Ġwrit",
        "ten"
      ],
      [
        "2653",
        "22293"
      ],
      [
        "CIsLC",
        "xzlCk"
      ],
      [
        "ĠNOP",
        "ASSW"
      ],
      [
        "ZXhlYyBz",
        "cHJpbn"
      ],
      [
        "647570322",
        "8732"
      ],
      [
        "freedesk",
        "top"
      ],
      [
        "NrZXQub",
        "mV"
      ],
      [
        "QgPiYlZCAyPiYlZ",
        "CIsLCxzlCk"
      ],
      [
        "RmKCIvY",
        "mluL"
      ],
      [
        "pIDwmJW",
        "QgPiYlZCAyPiYlZCIsLCxzlCk"
      ],
      [
        "ĠNOPASSW",
        "D"
      ],
      [
        "ZXhlYyBzcHJpbn",
        "RmKCIvYmluL"
      ],
      [
        "\"",
        "}"
      ],
      [
        "\"",
        "=>"
      ],
      [
        "'",
        ";"
      ],
      [
        "(",
        "("
      ],
      [
        "(",
        "[\""
      ],
      [
        ")",
        "<"
      ],
      [
        ")",
        "}"
      ],
      [
        ")",
        "}'"
      ],
      [
        ")",
        "\\\""
      ],
      [
        ",",
        ":"
      ],
      [
        ".",
        "*"
      ],
      [
        "0",
        "4"
      ],
      [
        "2",
        "5"
      ],
      [
        "4",
        "04"
      ],
      [
        "5",
        "53"
      ],
      [
        "5",
        "432"
      ],
      [
        "6",
        "0"
      ],
      [
        "6",
        "2617368202"
      ],
      [
        "8",
        "6563"
      ],
      [
        ":",
        "\""
      ],
      [
        "<",
        "/"
      ],
      [
        "=",
        "$"
      ],
      [
        "A",
        "N"
      ],
      [
        "A",
        "R"
      ],
      [
        "A",
        "u"
      ],
      [
        "A",
        "y"
      ],
      [
        "B",
        "EG"
      ],
      [
        "B",
        "ear"
      ],
      [
        "C",
        "J"
      ],
      [
        "C",
        "Y"
      ],
      [
        "C",
        "om"
      ],
      [
        "E",
        "C"
      ],
      [
        "E",
        "EP"
      ],
      [
        "E",
        "AM"
      ],
      [
        "F",
        "ile"
      ],
      [
        "H",
        "ost"
      ],
      [
        "H",
        "NvY"
      ],
      [
        "I",
        "V"
      ],
      [
        "J",
        "HNvY"
      ],
      [
        "K",
        "EEP"
      ],
      [
        "L",
        "O"
      ],
      [
        "L",
        "W"
      ],
      [
        "L",
        "en"
      ],
      [
        "L",
        "ck"
      ],
      [
        "M",
        "y"
      ],
      [
        "N",
        "O"
      ],
      [
        "N",
        "ame"
      ],
      [
        "N",
        "za"
      ],
      [
        "O",
        "M"
      ],
      [
        "O",
        "b"
      ],
      [
        "O",
        "p"
      ],
      [
        "O",
        "w"
      ],
      [
        "P",
        "CY"
      ],
      [
        "R",
        "AN"
      ],
      [
        "R",
        "EAM"
      ],
      [
        "S",
        "IX"
      ],
      [
        "S",
        "EL"
      ],
      [
        "U",
        "X"
      ],
      [
        "W",
        "AR"
      ],
      [
        "X",
        "CI"
      ],
      [
        "X",
        "CJ"
      ],
      [
        "Z",
        "n"
      ],
      [
        "a",
        "W"
      ],
      [
        "a",
        "f"
      ],
      [
        "a",
        "v"
      ],
      [
        "a",
        "x"
      ],
      [
        "a",
        "wk"
      ],
      [
        "b",
        "er"
      ],
      [
        "b",
        "ound"
      ],
      [
        "b",
        "od"
      ],
      [
        "c",
        "s"
      ],
      [
        "c",
        "es"
      ],
      [
        "c",
        "ing"
      ],
      [
        "c",
        "ut"
      ],
      [
        "c",
        "group"
      ],
      [
        "c",
        "aW"
      ],
      [
        "e",
        "w"
      ],
      [
        "e",
        "out"
      ],
      [
        "f",
        "d"
      ],
      [
        "f",
        "er"
      ],
      [
        "f",
        "ork"
      ],
      [
        "f",
        "open"
      ],
      [
        "f",
        "low"
      ],
      [
        "g",
        "g"
      ],
      [
        "g",
        "es"
      ],
      [
        "g",
        "th"
      ],
      [
        "g",
        "rub"
      ],
      [
        "g",
        "PCY"
      ],
      [
        "h",
        "o"
      ],
      [
        "h",
        "ist"
      ],
      [
        "i",
        "J"
      ],
      [
        "i",
        "ll"
      ],
      [
        "i",
        "ze"
      ],
      [
        "k",
        "ed"
      ],
      [
        "k",
        "ly"
      ],
      [
        "k",
        "gPCY"
      ],
      [
        "l",
        "et"
      ],
      [
        "l",
        "np"
      ],
      [
        "m",
        "in"
      ],
      [
        "m",
        "es"
      ],
      [
        "m",
        "ode"
      ],
      [
        "m",
        "cast"
      ],
      [
        "m",
        "My"
      ],
      [
        "n",
        "etc"
      ],
      [
        "n",
        "ames"
      ],
      [
        "o",
        "lu"
      ],
      [
        "p",
        "an"
      ],
      [
        "p",
        "ort"
      ],
      [
        "p",
        "ub"
      ],
      [
        "p",
        "lu"
      ],
      [
        "p",
        "Ow"
      ],
      [
        "q",
        "w"
      ],
      [
        "r",
        "ot"
      ],
      [
        "r",
        "oot"
      ],
      [
        "r",
        "ows"
      ],
      [
        "s",
        "l"
      ],
      [
        "s",
        "ftp"
      ],
      [
        "s",
        "quit"
      ],
      [
        "s",
        "fer"
      ],
      [
        "t",
        "ect"
      ],
      [
        "t",
        "ran"
      ],
      [
        "t",
        "vc"
      ],
      [
        "u",
        "x"
      ],
      [
        "u",
        "KCIxMC"
      ],
      [
        "w",
        "ee"
      ],
      [
        "w",
        "ard"
      ],
      [
        "y",
        "c"
      ],
      [
        "z",
        "ID"
      ],
      [
        "z",
        "XCI"
      ],
      [
        "|",
        "&"
      ],
      [
        "Ċ",
        "Ġ"
      ],
      [
        "Ġ",
        ";"
      ],
      [
        "Ġ",
        "C"
      ],
      [
        "Ġ",
        "T"
      ],
      [
        "Ġ",
        "b"
      ],
      [
        "Ġ",
        "sh"
      ],
      [
        "Ġ",
        "set"
      ],
      [
        "Ġ",
        "er"
      ],
      [
        "Ġ",
        "an"
      ],
      [
        "Ġ",
        "di"
      ],
      [
        "Ġ",
        "if"
      ],
      [
        "Ġ",
        "mkdir"
      ],
      [
        "Ġ",
        "34"
      ],
      [
        "Ġ",
        "multi"
      ],
      [
        "Ġ",
        "73"
      ],
      [
        "Ġ",
        "System"
      ],
      [
        "Ġ",
        "default"
      ],
      [
        "Ġ",
        "AA"
      ],
      [
        "Ġ",
        "udp"
      ],
      [
        "Ġ",
        "break"
      ],
      [
        "Ġ",
        "Bear"
      ],
      [
        "Ġ",
        "qw"
      ],
      [
        "Ġ-",
        ">"
      ],
      [
        "in",
        "it"
      ],
      [
        "st",
        "ealth"
      ],
      [
        "ba",
        "k"
      ],
      [
        "bin",
        "d"
      ],
      [
        "get",
        "line"
      ],
      [
        "get",
        "cap"
      ],
      [
        "get",
        "fa"
      ],
      [
        "at",
        "ion"
      ],
      [
        "en",
        "SSL"
      ],
      [
        "en",
        "abled"
      ],
      [
        "Ġ\"",
        "\\"
      ],
      [
        "ll",
        "y"
      ],
      [
        "re",
        "use"
      ],
      [
        "re",
        "mot"
      ],
      [
        "re",
        "wall"
      ],
      [
        "ip",
        "v"
      ],
      [
        "Ġp",
        "s"
      ],
      [
        "on",
        "e"
      ],
      [
        "on",
        "n"
      ],
      [
        "Ġf",
        "unction"
      ],
      [
        "44",
        "3"
      ],
      [
        "Ġ2",
        "1"
      ],
      [
        "Ġ2",
        "6"
      ],
      [
        "Ġ2",
        "8"
      ],
      [
        "Ġ2",
        "222"
      ],
      [
        "Ġ$",
        "'"
      ],
      [
        "Ġt",
        "elnet"
      ],
      [
        "eu",
        "e"
      ],
      [
        "is",
        "s"
      ],
      [
        "un",
        "e"
      ],
      [
        "un",
        "ked"
      ],
      [
        "Ġn",
        "one"
      ],
      [
        "Ġs",
        "wap"
      ],
      [
        "env",
        "i"
      ],
      [
        "=\"",
        "))'"
      ],
      [
        "ls",
        "of"
      ],
      [
        "ex",
        "port"
      ],
      [
        "fail",
        "ed"
      ],
      [
        "url",
        "y"
      ],
      [
        "pro",
        "xy"
      ],
      [
        "pro",
        "tect"
      ],
      [
        "fi",
        "fo"
      ],
      [
        "fi",
        "rewall"
      ],
      [
        "th",
        "ly"
      ],
      [
        "th",
        "oriz"
      ],
      [
        "th",
        "read"
      ],
      [
        "dis",
        "able"
      ],
      [
        "exec",
        "ute"
      ],
      [
        "Ġen",
        "d"
      ],
      [
        "ta",
        "lly"
      ],
      [
        "(\"",
        "$("
      ],
      [
        "sys",
        "log"
      ],
      [
        "sys",
        "data"
      ],
      [
        "64",
        "6174"
      ],
      [
        "sock",
        "stat"
      ],
      [
        "mk",
        "fifo"
      ],
      [
        "Ġlog",
        "in"
      ],
      [
        "Ġex",
        "t"
      ],
      [
        "31302",
        "22"
      ],
      [
        "DO",
        "M"
      ],
      [
        "la",
        "st"
      ],
      [
        "qu",
        "i"
      ],
      [
        "qu",
        "eue"
      ],
      [
        "Ġ3",
        "6"
      ],
      [
        "Ġ3",
        "8"
      ],
      [
        "Ġ3",
        "9"
      ],
      [
        "da",
        "v"
      ],
      [
        "Ġ$(",
        "("
      ],
      [
        "Ġpr",
        "une"
      ],
      [
        "ire",
        "wall"
      ],
      [
        "Ġ<<",
        "<"
      ],
      [
        "enc",
        "ode"
      ],
      [
        "AL",
        "IV"
      ],
      [
        "Ġ4",
        "1"
      ],
      [
        "Ġ4",
        "3"
      ],
      [
        "Ġ4",
        "7"
      ],
      [
        "Ġ4",
        "8"
      ],
      [
        "Ġ4",
        "9"
      ],
      [
        "\";",
        "$"
      ],
      [
        "73",
        "646174"
      ],
      [
        "Ġ'*",
        "/"
      ],
      [
        "22",
        "31302"
      ],
      [
        "IN",
        "UX"
      ],
      [
        "ke",
        "ys"
      ],
      [
        "pa",
        "wn"
      ],
      [
        "pa",
        "ges"
      ],
      [
        "657",
        "86563"
      ],
      [
        "ST",
        "REAM"
      ],
      [
        "637",
        "9"
      ],
      [
        "GV",
        "uKCIxMC"
      ],
      [
        "ma",
        "ke"
      ],
      [
        "Ġch",
        "unked"
      ],
      [
        "\")",
        "));"
      ],
      [
        "28",
        "222"
      ],
      [
        "28",
        "2231302"
      ],
      [
        "Ġfla",
        "sh"
      ],
      [
        "29",
        "293"
      ],
      [
        "Ġm",
        "ount"
      ],
      [
        "CI",
        "I"
      ],
      [
        "im",
        "g"
      ],
      [
        "im",
        "age"
      ],
      [
        "Ġon",
        "eshot"
      ],
      [
        "St",
        "ring"
      ],
      [
        "ac",
        "count"
      ],
      [
        "300",
        "0"
      ],
      [
        "SSL",
        "Socket"
      ],
      [
        "for",
        "ward"
      ],
      [
        "nt",
        "l"
      ],
      [
        "put",
        "s"
      ],
      [
        "Ġclo",
        "se"
      ],
      [
        "mo",
        "squit"
      ],
      [
        "sp",
        "lit"
      ],
      [
        "ERR",
        "OR"
      ],
      [
        "90",
        "90"
      ],
      [
        "mon",
        "thly"
      ],
      [
        "page",
        "fault"
      ],
      [
        "auth",
        "oriz"
      ],
      [
        "PiY",
        "zXCI"
      ],
      [
        "..",
        ".'"
      ],
      [
        "lu",
        "a"
      ],
      [
        "Ġ@",
        "/"
      ],
      [
        "ĠVm",
        "Lck"
      ],
      [
        "));",
        "'"
      ],
      [
        "79",
        "73646174"
      ],
      [
        "AA",
        "B"
      ],
      [
        "AS",
        "CII"
      ],
      [
        "gp",
        "XCJ"
      ],
      [
        "ig",
        "mp"
      ],
      [
        "over",
        "t"
      ],
      [
        "over",
        "flow"
      ],
      [
        "sec",
        "ure"
      ],
      [
        "sec",
        "comp"
      ],
      [
        "lock",
        "down"
      ],
      [
        "Ġno",
        "bod"
      ],
      [
        "Ġ12",
        "345"
      ],
      [
        "Ġ\\\"",
        "$("
      ],
      [
        "sig",
        "n"
      ],
      [
        "2853",
        "2"
      ],
      [
        "SOCK",
        "ET"
      ],
      [
        "ZXhlYy",
        "gpXCJ"
      ],
      [
        "mot",
        "d"
      ],
      [
        "np",
        "m"
      ],
      [
        "ring",
        "s"
      ],
      [
        "xy",
        "Com"
      ],
      [
        "Ġco",
        "mp"
      ],
      [
        "=\"\\$(",
        "/"
      ],
      [
        "limit",
        "s"
      ],
      [
        "6563",
        "74"
      ],
      [
        "comp",
        "ressed"
      ],
      [
        "ĠPO",
        "ST"
      ],
      [
        "ĠPO",
        "SIX"
      ],
      [
        "fc",
        "ntl"
      ],
      [
        "no",
        "tify"
      ],
      [
        "ro",
        "xyCom"
      ],
      [
        "tu",
        "lnp"
      ],
      [
        "ĠS",
        "ig"
      ],
      [
        "Ġmk",
        "fs"
      ],
      [
        "ĠEX",
        "EC"
      ],
      [
        "conn",
        "track"
      ],
      [
        "2633",
        "203"
      ],
      [
        "key",
        "rings"
      ],
      [
        "\"=>",
        "\"/"
      ],
      [
        ")\\\"",
        "\","
      ],
      [
        "553",
        "5"
      ],
      [
        "Au",
        "thoriz"
      ],
      [
        "Ay",
        "PiYzXCI"
      ],
      [
        "BEG",
        "IN"
      ],
      [
        "KEEP",
        "ALIV"
      ],
      [
        "LW",
        "kgPCY"
      ],
      [
        "Len",
        "gth"
      ],
      [
        "Nza",
        "C"
      ],
      [
        "Ob",
        "ject"
      ],
      [
        "Op",
        "enSSL"
      ],
      [
        "RAN",
        "DOM"
      ],
      [
        "SEL",
        "INUX"
      ],
      [
        "WAR",
        "N"
      ],
      [
        "Zn",
        "NvY"
      ],
      [
        "bound",
        "ary"
      ],
      [
        "cs",
        "v"
      ],
      [
        "gg",
        "LWkgPCY"
      ],
      [
        "ho",
        "urly"
      ],
      [
        "hist",
        "ory"
      ],
      [
        "mMy",
        "AyPiYzXCI"
      ],
      [
        "netc",
        "onn"
      ],
      [
        "pan",
        "ic"
      ],
      [
        "plu",
        "gin"
      ],
      [
        "rot",
        "ate"
      ],
      [
        "tran",
        "sfer"
      ],
      [
        "tvc",
        "GVuKCIxMC"
      ],
      [
        "wee",
        "kly"
      ],
      [
        "Ġan",
        "on"
      ],
      [
        "Ġdi",
        "g"
      ],
      [
        "Ġ73",
        "7973646174"
      ],
      [
        "Ġdefault",
        "s"
      ],
      [
        "ĠAA",
        "AAB"
      ],
      [
        "ĠBear",
        "er"
      ],
      [
        "getfa",
        "cl"
      ],
      [
        "reuse",
        "addr"
      ],
      [
        "remot",
        "e"
      ],
      [
        "65786563",
        "28222"
      ],
      [
        "mosquit",
        "to"
      ],
      [
        "authoriz",
        "ed"
      ],
      [
        "Ġnobod",
        "y"
      ],
      [
        "ZXhlYygpXCJ",
        "caW"
      ],
      [
        "roxyCom",
        "mand"
      ],
      [
        "Authoriz",
        "ation"
      ],
      [
        "KEEPALIV",
        "E"
      ],
      [
        "ggLWkgPCY",
        "zID"
      ],
      [
        "mMyAyPiYzXCI",
        "pOw"
      ],
      [
        "Ġ737973646174",
        "61"
      ]
    ]
  }
}